conv0_param_0 188.39140661209666 370.4169141306229 219.39702215288509 224.07489402300138 157.9939750843801 191.92273464616002 499.0347422643349 153.8029634573433 217.0674629824024 456.92246205557444 172.0014036473358 289.16657753653266 168.74432662568674 380.2492005145047 235.45208243571665 323.407719565812 1276.312997042017 492.16497120461327 341.88976715799834 321.77146261050905 0.0 119.66465198735277 270.6893304616747 0.0 394.3128645779887 277.3959840780628 188.4006850559634 253.43470754470005 401.51912957654247 267.92534302406915 504.8168393709035 456.15188375366034 293.127037382905 328.4154042343372 263.4801047585919 486.65865248013125 0.0 191.89656511859283 543.8646864048342 986.723673285094 1241.9200111677455 969.3875999790263 267.9320812394981 333.5285992044615 206.22123182818194 1645.9646878025112 493.978745322813 1139.3153618690233 223.7475871887855 245.25741729651793 361.95414763002884 187.0162827521074 321.8652253295249 264.04639777025403 286.50894562888266 120.5914488146961 145.83258863596123 777.7997670842243 1041.898963318062 520.9531435761063 225.34545818747583 207.62578165165436 178.82531018002828 231.62307222776326
stage1_unit1_conv1_param_0 264.5859348170855 529.2641772173909 273.98438626756905 300.91661321753907 355.70120721356597 569.1823259897984 392.2408149203118 297.9285217003925 389.32457442477636 1213.7187237991498 260.4818737523097 313.74185500581814 255.66040740317447 296.13823152208016 251.12611957159595 729.8975174841135 503.9356462854045 631.0897259409246 467.8645074449234 320.9053748438176 485.67288285202886 347.4921111602821 321.4204959970771 340.73780810955776 246.15361524250858 365.2500489624209 302.09551914739194 606.7248764279113 483.5520148185653 270.44772335034304 310.3430924509966 551.0557642594333 232.49304219724522 249.46464045213764 215.36594887330705 328.02167242669566 254.51544136710945 266.0916536677783 307.551957893497 238.6412433365007 668.4782587177489 498.0609370702946 462.97059742517246 1269.0631541949217 968.2533783338566 225.64385740012082 656.6271761380057 264.5553497550353 312.0078711205057 376.94305571158026 282.2223231527901 264.7415155489664 623.285079224203 449.1477574036062 322.58696676586084 1194.1689690466699 266.7261571732996 348.2094659837378 321.95833729351824 311.5018243130336 968.0466216606081 297.2152329356503 622.8874965293941 654.5339810149777
stage1_unit1_sc_param_0 688.3434593152268 512.4228698828738 3405.1581741898076 463.4888973023992 900.9239048867903 547.1447919295424 688.1079887394392 1236.311444288764 1541.061174761773 308.4377872279319 426.41210072517055 637.3369321458966 716.0964883919924 917.3874501457054 237.62852996968843 215.61531356921247 306.18155690990784 500.1367131678719 581.6710118054399 1418.9109802864234 1559.6284096067243 407.1075820620614 772.5605788077305 1134.7282305599758 316.2811775266922 894.696839586489 584.4189827390933 1002.1679074181578 862.6757451067481 881.3778242956047 886.752689366876 399.0614549414211 710.5725255679611 1866.5658926782603 992.5837960846701 1504.4748101671603 3045.478531626251 564.6257065832675 612.8915472595572 770.1278031671035 1069.4690677070707 423.3435359738099 856.148683409673 449.2804895997584 1131.5637703923464 1045.2714606970876 918.7541607004277 391.25693541544 646.9230583789597 1428.6492573403114 586.1886728397822 908.7101082978988 823.3143400758647 1293.8858926587136 661.0507662931831 960.6672629395441 557.8171844585277 305.26566743693235 945.4520505791137 735.7459983335526 664.5594739868731 401.7989783546469 957.864101221209 276.9084894737533 342.7671250528358 847.3706195297717 953.9042857289957 468.71154363951536 868.5210503215469 1183.9653841062004 855.1873878001408 1214.2853956720091 415.10024259727635 922.9765794371168 582.7411374426118 2127.586326651965 722.5222695784607 484.99372266555224 360.09767951741276 1389.171078050094 814.4230581900595 935.3105587560543 1043.8305393485803 1544.004153660812 1290.0680781770297 1315.790297056193 267.8199845872308 569.2254347119873 1432.8963150627333 1116.3200644002666 1076.7309648094563 273.3031793028013 1891.1984420981437 1401.4641806598756 993.8135477641945 1809.998845340262 843.9906181736295 496.6657926226693 589.5038181233904 402.66948101679077 811.6864793771896 784.1576966656286 864.0948356123038 389.43639948154504 1107.1111657555189 353.4368225914901 335.3428502403674 1538.3371969435866 275.9416065446153 443.03381119376945 665.7193253375082 1083.3140896565922 484.06713125490506 1101.799219197114 1427.1254025645917 953.5489998047663 541.6813150509132 825.1943310904591 278.43183409605547 951.1616258980168 835.3350448103737 1413.9977906143833 1132.9007975064242 486.0107655610166 1517.92138082199 425.64481428861376 499.20731590599695 915.7389801512768 486.21577354329673 493.0911859551244 697.3394624313466 302.9087413935978 1067.273106910193 572.8426135331003 811.8237916765928 647.7425204653354 322.7854254495853 508.4432494023895 731.3895800555432 1466.0116285670154 1874.5791657479251 1269.8166293955524 681.8338584193403 1454.22100038391 350.7346948685679 962.5057472017253 629.9326127578781 423.63792517257025 1654.8385704294512 760.4876114632801 407.9118681759635 360.58407301894283 631.3784175731697 1861.8088680754854 1056.3752150938194 482.6017863256294 430.5551222355982 541.5926101948712 825.2186204033884 1104.4841220195458 2113.7228013984386 555.2850383358439 1534.45362224789 182.93632844196708 436.41971254392064 452.6119812978159 506.713073488394 931.9741950609497 689.6602120390448 1390.7686561690289 588.1159457412441 1167.171334408957 652.4378562243446 775.8287603590459 401.77783979489345 462.19073059515745 733.6759343174875 596.6988936865683 250.23502337864767 421.7168441298121 510.8703314095532 1398.2859823188594 620.623902380556 351.8011915667035 447.526755169872 1167.489182970309 1874.5575197181179 1197.2674726765488 652.5284196369515 972.8120387808725 542.4753745960392 733.7006297316932 962.0828789883146 644.0922974493106 213.98816023463806 511.56192165625805 2511.074225224364 1474.922002235012 664.1559500916691 1089.4502903374726 187.96672803995148 560.7346852252173 1208.4769133368357 439.99265104838923 923.2814381428869 477.83409561474673 1421.3056163898916 559.7682361055203 983.4194976277101 1864.9829604294077 1051.5427140436875 387.33891352735304 3041.272017780547 2063.6991523720553 1003.4570972994172 587.1914230130694 285.22442122487905 488.1636496852732 931.8743322688122 937.3332897815825 526.9157720002497 907.6816516544148 2942.7449445461816 1408.9923635449868 488.68359994073523 1573.4212694979783 640.3343396472507 627.3255224323327 829.3817664042232 417.84952226512314 809.2415247474119 639.4062611479194 550.0374752073105 280.05819756602335 755.7216050177465 796.970508308889 1676.604083970802 464.18440092845316 998.4101873425053 564.5678833067383 269.40873855526826 384.70782993715545 876.683840132718 1192.6382820507977 402.59666830391717 1126.3202258765568 676.1089888080771 218.92273243760948 184.26446831036037 570.1037022647955 1087.2286644392673 1207.9273754778642 697.0792109356731 961.7270104122083 918.1531771087225 741.6182913628375
stage1_unit1_conv2_param_0 1792.454759045767 364.46068841416377 1350.1104011476568 251.92373190770493 393.50351464044917 467.82285228802056 776.0092449238324 578.7462176161511 854.4114243047978 1835.812325438906 566.7362524582014 383.56092262801894 673.7980509342607 682.4510195856958 926.9164989181403 300.5312041903574 1208.5198389259538 328.398599204722 343.0573847761681 745.7857150982562 517.6844344238093 1740.2135951173382 790.5591897265832 697.7041297430402 1347.5912011231262 338.4735285492751 320.59811176151555 1242.0379235172877 1013.674083856812 586.0418337770395 630.4069879192083 730.2324049204773 667.5204540892319 669.8742687174266 756.9073966187049 497.89415779390583 369.9808241568428 606.1381240868271 457.0701247752411 307.9425780671896 444.31353213907533 1305.8091582866723 614.0041872440561 316.07530096376195 519.7126044561069 707.9948506298026 389.0514194710089 574.8464837804048 923.221530360614 1390.5108911304621 451.3019094120109 448.7381228073353 1043.6724856199735 386.62058249848104 686.6411706476368 720.5446092852986 400.6460545263964 297.7460872296841 560.6012420304428 623.7018370564476 1805.3858342840947 440.92720708419944 1270.7577904465181 990.9929454696231
stage1_unit1_conv3_param_0 1391.3182006360068 1190.8696073116948 1707.9148790522852 490.2631465171852 646.880143857306 716.9662971841063 822.2990020580569 1276.5362769207243 2290.802300632893 2648.449303400552 942.2766865278876 773.3736365755589 1090.0667320447226 918.9005666292005 1389.8360721447789 1939.2180984648282 773.042682932913 785.4006784644131 618.5233143715739 340.86912517667724 703.3283823438272 997.6907053430047 761.1659811597074 622.3293327854951 1459.9490725502292 796.7166831379034 688.1428240043788 1055.0558053983245 1382.4300509423645 448.2206820182891 775.3007868331349 2724.0393084065163 868.8277464585855 844.1364032675472 1320.7593472405126 438.75821770842344 878.9926091123581 1318.9342316857565 1340.3792720253368 853.5007744553801 859.138931039158 1146.991404521241 341.05946641249886 597.3280344821544 1083.7911451193972 1198.4904488285933 840.8126273440856 1010.7659181690993 979.8179278732113 1731.7163803847768 492.14712352804696 923.6060154065358 1482.3668102363843 1862.6480889054014 886.8141399126445 1795.8002379489237 533.0089724073567 379.0984987694949 1034.0349471649265 321.03718065507843 364.9103512150911 393.2874309264155 1936.9118630266464 612.0911940446324 785.7543255632138 799.8951966639287 890.4188562454501 1871.2914091520822 725.2963774947413 852.8946953228332 1972.6450424273173 849.476497087172 1194.4746573278132 2246.68938436012 1155.7146434331135 331.1469235266147 559.628601250526 2023.7451752826398 1183.7013817145578 1166.4079583960338 1284.348139755547 845.2818638751992 1431.7712089331717 1181.5708237122808 1115.5647870658331 1029.5639639204321 1328.0924931009224 782.8279623452327 1440.2884840387576 1419.6321886485403 1225.8259360615793 425.2421543887604 968.5592761760685 810.3175247036381 1115.8696826619332 1892.1446038309218 1584.501302364744 1003.9521311301613 1383.4301878171086 2304.7195263532813 901.5990490225813 1887.4297174942933 1617.634901846197 1311.3516365227592 740.6778942973763 806.7913977977543 541.1441956225156 1402.670135533325 822.5007262531716 742.7127589646078 976.1710802573809 904.019327719594 2148.703705650566 1487.8164713012961 636.2209277743473 1070.3113665109013 1510.1381775450636 280.10241408324447 965.6472413852489 1481.312405319555 713.3056637945825 838.9434557479531 470.7535142084524 995.2214530366844 785.846265116186 883.1941013904348 1486.418513238909 836.2034671904353 637.7489335464445 1631.6243576651923 349.50389067337403 1339.5444949497291 1289.4960850972857 257.5797240507073 1117.5399572302433 1231.4753989589392 979.9436544447728 2126.9024669378814 835.9019866980686 1007.6843238687735 847.7576662563567 1031.660224720842 981.2469802983268 859.8177576830066 786.4362330936513 364.8449613936224 588.4166964632209 225.2426668177653 934.8765815922185 1241.268142048079 896.3613199823984 1250.8831033689703 946.130065515546 1487.7603726407092 1056.878175961848 410.6980934795538 1413.670258277513 680.3911405402463 693.7807328030764 428.3479207135559 350.9130690307841 1044.6497594516966 1546.180450368053 499.57671557964454 701.7877078006826 696.4176800392545 751.9427329596747 1810.5886929897472 885.9072718955217 888.430222089164 1081.226636676381 966.5238562085203 475.841822767713 1273.1786179298526 843.8816466197359 572.8496210431198 675.5890739563608 1442.683593281524 830.8182989644242 715.6869843744778 998.9990731846545 1155.0158708496995 769.8099812154576 727.574548933825 554.6414493468529 644.9763899608655 1293.5002186610989 846.7819618539927 1560.9302198826613 722.5012608214219 979.2341053887931 442.35721727070967 1229.7067512901508 542.6662456667153 415.3776469717848 894.0841354256218 1039.9239555157728 1020.5396611039752 636.7522035939319 2365.1365494677257 1808.9185835217795 280.8010868275273 646.0065456968209 947.3613704529921 402.0276290092616 1534.4762762110174 273.0820481104598 694.5218057251672 691.9523097658526 1661.2515013309483 761.7929922192378 808.0945870208993 602.3916155663495 651.2248961728542 1336.013314319744 771.6794923090783 860.0843115819285 766.6599226559881 693.2296865843119 1117.2401530137754 637.8868313380906 1291.1709443480763 1110.5886726369683 517.213916112171 1056.6856856208396 599.8104698097669 596.538057673524 1612.5130636000226 941.6037650779277 751.8925820570395 1318.2531648467295 679.546370440157 1196.8673155646698 517.4571894839718 1101.6514611398816 592.3239232313596 1464.8602485638344 881.0079242716703 996.6665689820684 1129.002271429989 1260.4230641876509 1480.1632238520424 1838.536942502103 1033.5653328089606 1837.0835337217231 1517.8608264309444 424.5473234740168 1092.4143681766766 487.05512824732915 1085.9183374751035 928.1422365951871 745.7579807929486 887.8023923758476 513.9230112753626 520.1201279315408 462.2316394617112
stage1_unit2_conv1_param_0 921.0923135365945 385.16706044322547 730.6939958496281 720.5485079910827 767.012766438442 364.05050662275363 448.1725056137081 1006.8714775464723 721.8995084833608 757.6465351519 1277.1860105186054 436.35437881331507 936.4064229806723 537.18598215306 979.036128584775 616.0098864272243 849.5514348472531 979.6424603172322 736.2383100881829 732.722864154719 952.2979507688876 545.6346465046819 709.1938488678087 446.9974264211877 862.1745601813284 604.1687666503364 883.8398079924273 927.1929985760557 566.0059384355178 919.6235722371372 766.3089191712329 497.03445371221704 492.2085158723311 945.5674333837284 689.5847695661239 1004.3681099121482 692.0808696344873 1265.8966409830796 869.7087531450161 813.1858184286768 1088.3021064816146 572.0841221829668 975.3901758358994 713.5244683702862 753.8699073268579 623.0066543120281 546.5245144630285 1103.408177906748 724.4560053768774 851.6185658042424 515.3951508929829 885.0157659182524 748.1891160179478 469.9112133594911 849.8095420516754 681.6011843772502 950.2613610010026 790.3056205759992 739.3184155031901 758.8802719238565 482.47201729620843 914.580406117201 1014.263737289015 527.3882552324228
stage1_unit2_conv2_param_0 569.6441644934462 319.7887080572193 1834.0874868797011 1097.822553057034 537.9849390173428 723.0150699509963 599.8154087516286 461.95854960586644 466.8935788466972 631.8595643201039 556.9801223368496 551.6775553200267 441.9439193174251 502.0446073074402 586.6295107314854 602.453656525969 805.6376817389123 567.1478546027555 702.9336370231492 390.4171776443185 701.2052970837145 671.3838903171197 729.5595022595578 841.2039172103398 580.4177845879344 806.8894724380025 511.99726256384855 556.2589996949422 929.4889961324484 735.5951190630313 520.6559952506503 713.075538356685 503.2888783697807 701.7999010065596 925.3778951223455 957.9136239390016 913.0923305961073 1808.1284126257592 667.5576280925399 550.0743598534448 623.9063373211302 1297.3608188260143 666.6999693357113 900.743186768369 817.4062198759316 631.3391774081585 1332.3168762337823 400.88252062849205 558.624177326657 683.8204067799657 583.4175639042858 613.141902339886 801.7496550185917 1088.2540256198852 901.052870355579 947.4127619319701 745.9862465437365 1046.4737182445429 1253.8436032403465 631.3597089004056 559.209123687016 1210.9815421354674 734.5110681352018 1398.6786094785841
stage1_unit2_conv3_param_0 1264.6870185080186 1167.583467622562 1194.3729670159657 1785.440418794161 963.0497637863963 1194.7601522870214 1300.983035127413 1989.3174358964184 1536.74907329774 574.0503931311913 724.7145493140794 1116.1333051598747 1055.3904619628781 1252.672728552777 1464.0382942394076 2041.6781624904097 1074.566617337465 602.4839790628472 1523.3192502213399 745.104961409453 478.106918628499 2214.9476753716394 1561.2303083442532 989.5448068153781 1759.7916304638693 1408.2465531085286 1087.7254163988136 948.0655394434142 1377.1859987266869 679.2117450647759 1013.4290390753076 1287.3426657389393 973.0791601183521 1224.0106200854298 830.7826651308131 550.9366455798566 370.00729471512153 1068.8107519819898 935.092186087918 1386.3020742905894 1095.9487487212546 1875.6534365070186 660.4704080656066 1640.7885163632197 1214.9729594918763 1423.5336873950973 822.4592940910355 1010.9575098550504 1165.7376540140808 1670.7070967886111 698.3002459135532 908.2489648382281 2235.7389318101423 846.3924431488826 727.4913291639936 1404.107370363503 1433.7257492181889 889.1600409170127 1218.265657385188 635.9855431403718 1011.6047584259094 647.8015514415722 453.43286651616836 1344.311983919662 1029.9124481596812 1054.2357074572776 1226.785277239278 1406.9706027431453 790.6657534350783 1145.8572042892208 486.3213671370589 1662.5205008886758 1031.6353119417042 996.2974720085887 983.0304378882879 993.4168010112708 841.9603909945245 2540.285375288789 1572.3411598093412 1078.052608348052 1163.2168288420344 694.9137865299913 1251.8729790772245 1296.563364117518 1214.1789206080564 981.6287501593754 1643.7660211398843 1695.5841450588666 1057.6383392368332 1486.6539385927676 1152.9951908849423 923.2702360968237 1362.4939965829046 1419.7354134112352 1255.5183395529878 916.4687443680591 849.2939921709497 1005.5871493646607 1185.8473093321538 1734.9869268718492 1559.2782986303116 2553.0364179834137 1287.2366027918638 992.7361777908857 882.1382781836419 2224.7952478258007 1186.6522117600014 1173.6249597388696 939.2908708163754 846.8262174332126 921.1419895431007 1213.0962888358342 2074.9112893379684 727.7768399134882 846.1758066211955 1011.1762865236026 1350.3063367941681 729.4308139169652 2364.182616106299 1093.9354240167825 1412.3766242331862 676.507733285242 1202.3384964550532 1279.3543336068321 547.7974613249527 1685.6527954956568 1579.1223505780738 924.5633649110234 924.9663348997922 2503.8735780924944 877.3390244012911 812.5011359327991 1745.7846934178187 3006.114366243781 1096.3537841219436 1152.9984664928588 1139.2568810791602 2474.06776146573 1334.017608985543 493.4777574957984 1008.193556301303 768.4041172444752 1081.0532852965312 844.8379453097252 2021.546940316775 464.8918338276899 857.8349092501214 3009.495474762209 532.9876062682575 2491.1237770101957 440.6726886443932 3144.302367581185 1361.884499350603 752.5127072884682 1331.2066695708172 758.6131886393505 1280.0441390712363 1154.1113777491362 592.5799606815887 1621.8172713275092 1195.968610619641 1215.598882675907 1504.4130666497917 1375.4910227322978 1366.5977359038766 680.9944822578253 838.029451688625 1289.435997211082 814.8147817288079 1152.2894197036733 778.96420301595 1784.6255911706235 1104.6432356456467 974.3426685645569 1147.039489892778 1277.6124794546104 908.4351283261472 1849.5721576298256 2075.084568303342 1912.27491729685 1825.5535227659618 783.490896822628 4232.32988018706 637.8439138657365 1199.0926677142586 924.8443833680433 1406.3393536713006 658.5046167734592 792.5096706661188 1262.1839380070342 1181.2990463618419 547.7837300727783 1135.9725846877016 2071.7032865474844 516.1537209036842 1362.8190524496185 903.5519155946729 550.4103477969638 918.2556608338336 537.586418358015 1526.946458139169 591.1676599776582 1263.9965082550389 1191.2099026606609 482.3855615760809 925.8071190298585 594.4337411480011 1531.0111046831162 1147.5870829114622 1784.582991611053 923.7460622933844 1587.203952242863 671.3214352441587 555.4538252866156 1171.133588291063 789.7957496202685 1697.8912444853015 870.6340586790548 1084.4598394602708 785.6104098319177 1235.3081460403819 968.3396263630087 766.1701781195554 1062.5765705989536 1720.9115683139437 924.3188042152316 944.0774932551855 1105.0248513151723 1307.7546044897424 942.0194387359284 2245.5337659646475 963.6785081051622 1491.0803175647884 1049.5248076139699 403.3334264667856 729.1627186014299 1230.1773788083433 1376.460021925617 1318.3801038870115 1137.6806215710285 1943.6781852611996 967.5200112612869 1374.2644061062574 825.9482854511608 1873.1470707659896 957.155841139653 1229.9218303250404 2530.715236528205 1327.6230812996891 912.5672196111204 916.3967107964664 1116.8431765750358 960.0700177171067 1594.4273648466944 770.8673414464039 1061.2715655588606
stage1_unit3_conv1_param_0 1242.341721072765 809.5714453572746 991.4999769075713 934.1565355247606 614.6662472167086 917.3773781070296 913.8558986084938 764.2627388694957 1255.5302691659738 545.9082992376535 708.3723400170319 946.0396423468568 975.4803796015934 1025.4470469035812 1024.674040831745 701.2904013819727 1145.2281558009754 914.817679752523 755.4308262320232 976.5140003668733 981.5767450811611 636.963115397013 688.8040844500935 944.2344878090664 836.3211330788503 534.9850014079501 1236.1708593339915 1267.258645224781 1249.4033735753626 723.9361499552743 1374.7343449389168 1198.3267411595057 1085.3834935175887 1096.8475480715524 853.8824068775257 987.6479173506159 647.7890944684004 940.2693075502533 1036.80492207138 1058.2165375323482 950.9607240615501 731.5563205166303 718.8518755307366 843.5121551666547 845.2303091922238 1325.8485675121256 772.9774796210655 742.8033173823017 714.8950440814824 611.6990227113426 884.460575217267 980.8179850919063 1181.531347230439 1248.1900439321207 647.5311016162929 1038.5670781152332 883.0223467345222 880.3025137834767 1186.2294811542167 1153.2198471258996 1080.4732232266813 1107.2125633716123 904.8064996224323 1158.9009304371232
stage1_unit3_conv2_param_0 1343.8940782303314 770.7000427090312 1447.49176595908 654.1234085875888 1337.357632638721 1180.406884864279 877.6197173250905 654.0146352483572 858.9197030211553 1018.7717862699077 741.6192593488531 903.0721640723782 1458.3618697050313 943.3104252045126 1299.2293608973357 1054.1915022610292 1474.5380885145787 975.3323559593018 920.2332393574194 1012.1831106734356 835.4935799588019 439.4880551995496 1432.6626752559825 972.786278490791 899.5075275533243 823.5267481604096 565.3213733656884 554.7636561514576 523.8518005676376 768.1203205821071 1312.9361248829127 1387.0497595356942 780.1566961615194 897.9505414363709 1576.5322791087074 920.80829757831 463.93450458642087 719.194483008166 959.1651241645116 617.519459035227 586.4818857481299 1059.725082320613 808.4140644348494 820.0731343532033 791.4455024815941 936.2886363456598 776.4044848547015 1025.1223533143263 774.0171337095396 1596.73985778739 843.3824422254391 732.9944038263383 559.6641006388957 798.2926816429299 551.5894376908647 872.3469897374564 1173.6902548390754 558.8779594235682 708.1168507256996 537.9568902337841 771.501504789101 1303.9759193271757 836.2891286175789 1085.1721213925375
stage1_unit3_conv3_param_0 646.3096374070403 1656.8928585835483 1387.8778010732947 1099.831702564739 1525.7157146650986 1070.8853427503143 1033.7754465972741 897.9543257144904 1547.5477055452022 1112.291282455788 931.169278630053 584.6111616988792 1290.065344364276 556.6460295657387 1529.3468109290868 1442.0090420536199 2902.508961930823 1167.2684453208533 1931.0476874081244 1692.3734564570293 1115.2653848071395 1554.2574180471704 622.7549603121686 866.2662761629606 943.419855436741 862.0500306725352 588.7048641223017 1390.5274523843107 1298.100828536687 1793.556391803387 1127.585132797595 1155.084903864626 1041.844515431545 1838.9959321389506 1409.0273045746794 2199.3334714342404 919.1508921165697 940.2766727183345 1224.4149758365966 871.1364037592814 735.6718209920128 1008.0225627572813 795.7118375642859 1248.1277120112306 1435.4126433420956 2006.923646214253 993.6153085405914 1566.3378652324602 964.3761607856019 582.6683507400204 2294.0048828339222 1840.650313346726 882.7945112115539 920.9559560529806 1102.598440004119 957.6181783759034 1207.47010827005 1558.2320420049296 1211.7597737717815 1946.0867746851015 1676.4050610254014 1050.0586523281797 1412.3438573303024 1973.9775495125753 3012.9915080016217 860.5652552118373 1130.0108850792687 1492.836842628431 1184.7874967957398 2238.1359798482235 1030.467698142841 940.8038410926308 1419.1361388667176 1582.222775692826 1452.6254236804261 1690.2445486614658 1468.1780547250744 1085.9016653444592 778.4926061785425 580.0268852688398 711.7504975799737 2507.8417938188513 975.0481559852684 1045.2463348790982 681.365073885612 700.6081291111631 1373.003036037113 1204.4640739657532 999.1260226949147 835.4767081721056 1697.7579849593058 1286.5962219068356 717.267568575649 1010.1676319932545 783.2976289482872 628.151145852043 2265.9015921122254 1565.6533361745785 1134.4425392039905 705.7711805450606 927.6496545106486 2469.5651965286584 805.0314909482403 940.3014661743268 1016.9175597440842 1486.7511899878527 898.1694197357033 717.175223382393 2383.931510985595 2204.0303905361557 1391.1863657357324 1565.3078461305636 1945.5643405896096 1075.0278620553256 648.7350684744238 1110.5736945149724 752.7264461267622 1330.5606473997607 2270.27106173636 1583.098582361306 1598.1878448231569 910.5113195547708 1030.6373561259238 1402.5315245687884 1436.7100888003774 1488.0615629749861 826.7652087214988 2632.594030131972 1358.2808221344856 2029.229001734868 879.766386745284 1105.201318617849 837.0833984100492 1259.6371272296462 930.8930462516836 1638.3579538349616 1241.0739255710287 1490.7944625902292 676.3391084282717 1292.6084923824326 860.8476627048482 679.8922271803863 602.5043803522577 1018.2772408770147 1330.7331841803302 945.6109714861896 837.4825806350179 1141.5406369586797 380.92765033496664 1274.7264831674108 1087.7883059153512 1834.6433793000938 989.7840684359733 1073.2324864533582 1803.9125633766091 1570.709154391814 2834.171545872169 2035.5653784400724 914.8931972655481 2219.0897244775706 528.9169998504381 2615.3886156308185 831.7016984217057 3006.8628569256325 1382.718140373989 1321.0741093088338 1429.827627508782 1195.2109427073742 1540.441710404231 1507.479799348797 1211.0609551392422 824.2306252762844 775.5371956536635 1108.3388930871297 1620.29382575202 1437.3979929985499 989.6020260144209 2302.673390927462 1674.1927773300665 922.6294717673181 1775.0704097543187 1270.0185273310283 1253.3093569845962 1782.2828362737 995.144758166589 1025.8112690133428 951.7592079253916 1203.6367899820573 1646.5302240972878 621.9766306275787 892.6710270849447 1989.7507479811134 761.8226129986239 1041.155080062346 1905.6262463515554 1268.4414784528715 1356.4010136850022 847.6136624630548 984.9114362424081 1266.7205331898192 2307.1289802290867 2054.50497103102 1092.693009743603 1307.8589579620555 1543.7053377017303 1058.0806310426076 2122.5090367863017 1068.046696262136 2655.196529761949 521.3423962189028 861.463098898653 1244.5883254118137 993.6426471796958 1461.820997962362 838.3172964535689 1276.5996621128238 2750.6380051834917 711.6207063399496 1435.8257953745517 992.8115766316987 1304.5834979594324 646.866298510272 883.5942366872138 841.1055418076885 1341.6356606273987 649.4293034162524 1121.8123487963996 889.1346244949027 760.2997592379469 1237.0342398281498 613.4939267682166 826.3278625360998 1345.6632896243023 1517.001016160494 739.0928655397561 2038.8063440635594 1401.3854857364224 1462.273955069543 800.6990573579246 1567.3711143762023 1662.6932099550597 1589.6228551519578 948.1981228341635 1108.8441631620203 1556.6651448551922 777.8758678951206 1019.7725689569044 1303.1382341741266 2121.6533372101244 1360.033773825413 1194.0035960935124 952.4902634572874 1838.0841280896723 777.9903311067853 1011.1494141133624 1191.4951715009443
stage2_unit1_conv1_param_0 2787.617344842398 2600.9157491903634 2975.1187743502724 3736.8309324554984 5450.153292612486 5514.855839429195 2288.4438613950115 2141.3584859534703 3670.981394036633 5668.912402271536 2776.7221117268246 3845.640481890309 2290.0515078663857 2355.8119170642162 2489.3469596443283 4269.614526654796 2835.2003922722824 2667.6880215447677 5093.987943593524 2207.4097830682795 2844.081063807511 2273.2524306001023 2609.269841230965 2286.815153847676 4136.069284338133 5306.185128976695 1844.3778387942289 3478.461596353887 2788.721929240828 3894.522106708569 2620.277429197952 2449.7236899203795 2406.059319199457 2369.9413461586587 2583.4935479165174 4206.687020873699 3020.3836575226696 1913.7457894991521 2516.1833645230226 2063.0387606506583 7949.00031256168 2280.8078201488856 1945.5350286214987 3170.0660966531 2064.5378644119796 2742.0675245119724 4211.6272186483575 3358.7278771838287 1758.3598802689853 4005.260437951265 5304.332070549121 2101.50263790453 3266.34934230464 5073.945261679582 5308.310577085823 2033.6790940052367 3331.7253164407275 3299.360884508491 4248.269779370074 4156.689995629485 2601.6064715788216 4260.392499996251 2534.592664147635 2767.6631831488958 2697.862139686148 2191.573411271251 3186.7183805770346 2833.233860512986 4942.044874777805 3621.4012611002754 5425.9982622826365 1947.2955339007253 4093.440330901598 2149.5538545437557 6068.262750185009 2629.073223638822 3350.0886636015525 2354.6229837368696 2950.1173954738674 4620.205928355528 2690.6891201577637 4517.284566721976 4195.23048114095 3390.8279582127507 4035.29987938359 3218.2853276153446 2159.3865949846127 2642.199822191166 1997.1352785121026 2103.619569047825 4763.473104557033 2331.5705021439167 2887.895724603711 2347.9314758041446 3427.2308683078813 6187.904898313684 3996.529390366751 2778.571092473001 3460.29139148133 1689.0041811783854 3471.1507297487124 3266.1356081400218 3478.584048164048 1844.5864086717895 3034.841471602394 2152.2806239392894 2749.823305963057 2978.5704816511256 2410.920828499064 2108.6358675334936 3156.078446242994 5597.970704306668 3367.425068469512 2954.982054262457 1293.2692974656077 2686.723107394519 3615.4345807926484 2308.8505588742178 2407.9778584691467 2532.219979930194 2091.300064877513 2220.177937758202 4546.496069378292 2936.2668333215047 2691.8939827532704 3046.743055340198 3548.4642900115955 1286.76512108265
stage2_unit1_sc_param_0 10118.854271880315 7683.432785998882 8061.298264439731 4667.913437819033 8182.469270439776 8258.79014244839 3940.7778758920886 7382.077052167138 3538.057091618581 14972.402319733335 2861.668497314634 6682.818562039434 4238.529309167884 7225.6622041942 8365.378841479798 6285.424992431597 5168.251369045359 5223.117795956107 5353.098305131586 4301.14197477828 10152.725194339528 4710.405475523097 5162.707340804561 9935.78357432055 3091.994046982546 6289.89610112379 4287.598837952943 7156.139873362786 5956.926534192876 5706.687937788263 7181.814064905192 5785.790836295701 1601.2532468642657 7057.494836622341 4241.599821035963 2209.952855190157 5886.424817696587 3740.406909997773 5886.55034431291 8594.451348384226 5792.111563120559 6495.514695945222 5956.228185230743 3922.3723165883544 9031.738808069307 2295.1114319850635 6534.040284489176 8426.324302219371 5076.720538853409 8185.752307857524 8782.764827208475 4718.878330192725 8676.104845536434 8862.787868609577 5773.311910518948 4787.515315812268 6748.503995994998 5339.871710451863 4007.132271450562 5621.040736890442 4760.0474718746955 5261.221535491092 8188.592953011066 3841.2324501315197 3639.6189907612297 4599.6476677716055 3040.8526292692063 6983.332598360034 6609.5501561638 7226.974156128262 4959.0130344036015 4668.765259030904 6105.359161830159 6071.188133124011 5513.284366651904 3373.138899146111 4724.565242900101 4035.3385692483917 2262.9942891615146 9418.739138179626 6767.099281700559 8327.597691518877 4876.7083794068585 6713.617441425729 1086.136990379405 6681.3058390499855 6106.5577628462315 3885.2878595377947 4754.029236092678 2890.8686564648087 11672.213664904204 2541.0774108267974 3347.5303762287886 7273.24496724658 3733.2016902029704 6362.583784411277 6139.409497820358 6813.382200744267 6292.795774001835 5548.833879894555 3051.667155595061 5360.604898421284 7349.4921654044665 4539.692616629954 6754.350914051247 6250.488118430214 5876.986548869396 9343.323074844378 4370.671735546132 10361.346243338725 9535.822065955213 5773.495235439607 6549.732677181125 6252.486806729979 9195.244040110123 6411.865638086493 2793.240118440653 4799.446404100477 4047.744090715395 6510.603324424963 6813.113956117549 6221.14852574999 5795.7317931681155 1482.411286662948 6606.986977717436 5458.781158237357 7628.005392428985 5456.574578872259 8535.139266730872 5810.140738761242 5520.301377180782 11484.48005009993 4192.219237431385 8008.071873045553 6082.18321372669 5233.5588501102475 3882.6174278329413 5723.565205310574 7511.813558140019 10024.614475678154 8485.806397590512 2948.0165736363306 7974.230562240128 6887.40948488732 2111.841745656379 4060.1361805046836 4916.943452840252 7325.487599469938 8660.279519463038 6307.742788998155 9606.172656253191 5290.042029631948 4614.7623314962075 7970.21113869835 5186.55880821724 6188.566513383421 6753.453095802064 4864.501959745751 10994.54072480731 6825.402683768295 7766.26086417707 8804.983629658307 9936.105736643076 5952.467099776926 3235.7457664746457 1535.1889742249416 7582.994169948001 8157.795969810369 9414.048394063799 3799.190522735932 6157.6539227308085 5567.513179183294 6937.999350388749 4752.78222479982 6433.755546071261 8901.720216361762 3271.6321002691484 3630.301703067152 7250.700325588454 733.9336442561306 7791.398458463652 6330.749210984628 5673.860507087936 4321.621423571864 6498.9874266842535 9166.202636856271 4130.8283438634735 7204.144837293771 4026.224959231454 1590.6293216666136 4957.479554922891 3766.2120074269646 4990.367000018444 3024.7222700396164 8043.342002854817 5856.613943465306 5068.892886521579 5212.3517024122375 7127.504469834497 6779.881031854876 2390.874356254156 7065.674355328489 5624.607503028741 4262.8654353971115 3871.532154179437 5258.371509877733 1321.6505894088234 8181.276850043215 9381.795996803872 4817.614599202573 6445.320786518394 5241.057994033663 5431.992257515987 6593.967439347344 10224.073161858976 2226.8947862148398 2939.526525130439 6366.424010790947 4652.669827831865 3346.661836034759 8595.445964880411 5843.407282777194 1793.745697305801 5912.450159421071 5313.27037325194 7246.442738816853 2417.911558317422 7856.508378015661 5395.278957150952 8365.559997072534 7661.9819439002085 5614.395509577498 3797.956747504685 4260.659792381696 8189.19289136042 5320.805530741773 3099.1186359817466 4299.77139333566 3862.4126061428933 6117.5996583319275 6217.211646476851 7520.832707246284 6080.526695818428 3381.1019701976525 4330.283313676961 6350.820505641237 4537.614630552593 5983.022293935406 6142.0713487195735 8112.855746253659 8646.23012828471 2981.118315792861 9083.16564920138 6730.498250463086 9438.971734627181 3873.863783382816 1583.7465091547176 9814.205227512666 5886.302853642734 5744.406416807737 4210.517184898246 1681.2288485674594 7011.288362302552 5881.832296201826 6920.195757933942 6508.227498243428 7752.710254835878 6800.462412174856 9027.062786263661 5239.474792619093 7326.960456450686 3899.593470849851 7232.174566863077 5832.2119990481315 5548.752597592626 3431.5935022658323 2353.7501499603973 5569.906419999007 5437.3225650071345 4658.109396621627 5760.297305816419 7894.910897791212 5864.475736852503 4450.734014965462 2866.971863626161 3578.212646866161 9607.490374946236 3825.203832373385 5161.827933733686 7786.451295884119 8626.654524357444 4801.896304977076 7038.968132078123 8736.772355489498 7450.787758358048 7682.359296003692 4762.779000062798 8006.291805853552 6012.966259270995 2818.5723101934827 4756.040147592045 4437.7972772179755 10751.681573160993 3885.2869739478047 8311.716948702222 7193.038002855162 8754.95515619608 5254.5302464571805 3188.7733010071984 6128.909632780162 10020.212459771148 5846.919454430716 7750.930868954366 3624.176608976176 9488.325071119709 4804.534229130741 3351.5717387867717 5954.554791687627 6551.584871779103 8595.52940178322 6872.6715228463745 3714.632839847585 7399.10352771172 5981.578864515486 8865.619332292767 2952.4441615764426 6099.166967215234 10212.307805586539 4560.765857236361 7664.191935145744 6711.823148545732 8509.500382245178 7484.439297622425 5816.7733381858625 2312.6407212178474 3201.0691211077137 3206.9044970671916 7224.597981428258 3554.2677484266787 10991.549795072982 5757.322008949937 7884.204202104047 5415.870262376891 5491.185029755802 5006.253967587323 5001.561796746439 3475.706404669523 6173.778599629008 2470.5273089362204 7582.124775786524 4732.373991233574 8369.602884886208 2994.7868553119947 8952.381704567857 4583.9424959735725 5612.39396281606 5699.436182296078 6591.287615958195 7534.178572655911 4602.067383489901 6068.8288029955265 11585.028159309968 4614.480307351355 8628.634902785083 6764.644013945468 5557.538072449171 4879.2475900958925 5085.953720783457 4481.075757780889 7692.117429256772 2824.3636010858595 6136.215338548107 6541.416706953333 4698.514816397976 6926.853558319125 6763.179892717728 4230.5565068876695 3926.507312538037 4955.32894619124 6944.404297584768 4753.501255885876 6018.7906404232235 4686.958203664404 3730.9427588659855 3569.6424778968626 4750.200477133759 15565.621568953777 7185.127441458941 7400.292073958414 10311.704005818374 3269.3072509677127 7667.5808811713205 2919.183820205015 7707.103050926315 7893.76928058765 1839.7398468751683 8492.416507590446 5373.546581264851 5421.572439553925 5152.986832573703 5632.073293122847 8113.192658947886 3697.6810505915414 4705.944629064537 2893.592758638602 1528.3555340046782 5046.396192536711 6569.83666264282 6748.609533130467 3502.2635337690467 7711.356763968779 7279.569834649685 4295.904682697377 4838.412620209699 2792.400677555166 9168.622218253817 5047.028605076963 2634.997529117581 4736.076347800876 2965.1521321490573 1780.7856193658492 2183.436701265141 8536.915373266365 5122.934906049806 14668.872397520285 1771.156926611029 8298.276947025048 4556.726322703339 2621.2589983251955 5428.879053688112 7006.782983314156 6506.969752240706 6400.990869313904 4466.9284236472695 6943.483530478772 5891.600238834859 5504.716802025478 4772.707332993652 9179.139973034446 5718.39673488503 3442.8217447945594 4050.605673934309 2596.4871847424088 5318.111684188933 6134.9940275623285 6327.04465314171 5391.631620608119 8791.680822347913 6278.952556765806 6618.800385269742 7047.536683827628 5598.672613831493 5907.65110562343 2202.756390786227 7269.205761835463 8446.6082860439 6108.682717487626 3385.1125789411544 4993.417979250205 4393.300287802363 5768.403135901531 6380.918192324455 5200.655863526826 8061.161021035066 6159.794002967755 7883.134035789541 4590.678412375425 5781.82556446116 13858.523626477265 5945.854488054722 4420.649637161395 1163.2699360775355 3850.294753928246 8580.354862262757 6054.3569390952125 3622.0930639409394 12996.39168994669 3713.1071498161327 3724.9567053978885 4807.6112919126 6790.524684326867 10081.761591715942 10074.407966309205 5411.604823493817 7006.147235267051 4342.301251716984 7620.441609284558 5134.523116369241 7676.9764614747155 8618.981782193963 5240.9584871688285 6653.421401827582 5150.977309142545 8255.903592942599 5367.237144647653 8514.798401806696 7388.699192605774 1963.4024545912143 7434.262859512958 3372.8635756033254 5820.452793433127 7067.154454852787 8292.633116759716 3459.497109618942 11109.774129554438 6648.938709230731 5927.255913533178 10597.990410568613 5653.838424316049 6469.454753785833 4160.196073566882 4073.9169473725974
stage2_unit1_conv2_param_0 4497.01395465471 4352.745988993808 5749.523610050134 5691.0250276172765 4614.714856580442 7830.644699282234 5869.67628517582 5882.546296665368 5855.586875536004 5339.969990171009 4852.213531365536 4696.217115355912 6018.818268472113 4451.852251948492 7645.167220596805 6712.81501289593 5199.156837270475 5034.010077676428 5806.7205685974195 2629.6911493717794 4701.910464233504 4952.394463408448 4715.787540933899 4287.663278485664 3338.6879812217976 5578.068982319473 5801.30118637946 6224.281165358534 3945.45126321369 5451.904757312754 3985.045476994285 3559.1513687123193 2717.8552287574926 7079.621812708484 4207.05534250619 3840.634399435722 5725.468470274257 4920.4886370861195 4698.074843025665 4580.3574681224545 4301.687683795011 7188.418109145073 6357.083422669101 5016.754925510144 4011.6915820181885 5274.854914076841 3243.9012099032166 5068.369891822165 3694.3427904822024 3919.589392655874 4677.249905762298 8229.282589076196 5144.602925022806 3790.703658695374 3749.3376949658073 4039.9130180362363 5256.28666744272 5085.432889246369 4390.166854348034 4524.004761900338 2898.1213607609193 3110.7334920485882 7060.177566723791 4862.5356251275225 5016.953522034607 4276.542201172197 5359.551461204084 3643.858938774393 4824.69647952848 4367.414658130911 7101.464131373524 5500.133289159707 5207.8115275062455 4331.127779521117 5683.131739677838 6124.958189999398 3936.9510146066964 5092.492335711034 5039.852401389018 5034.31746545315 5098.099585453161 3495.563696497823 4996.517361464796 4236.421419716079 5066.417904800459 5440.20367701585 3305.563675677353 5701.359663276419 4061.9890060017196 4348.301438653698 5842.307246489073 5184.842362178043 4954.835603486158 6406.541622418618 5958.880387170841 6157.360869236579 5010.858097157839 3191.6927141842148 4891.934623349421 10498.831064050046 4576.2794836076055 4360.099910384123 4288.250073035202 3563.7865088081435 11695.050406433782 5058.588188788971 3869.056224919197 8737.891450265382 4358.666983144852 4107.597459025751 6480.731143009765 3829.7248434944854 6391.742782401724 5642.941409752845 7532.585453297269 4469.766855565771 4545.171318278623 3274.677281505053 9382.534459543047 4716.615488294587 5610.44970289945 3687.2882553162954 4530.995785763462 4771.193743299294 3612.8919795061793 4785.730296712361 4920.186826021324 3831.629948601475
stage2_unit1_conv3_param_0 5519.673047077417 4526.765942148442 4861.0695415797345 7532.642041606037 9830.683236506919 5420.098482080653 5648.220892830472 6406.445308919238 4139.824912621035 7501.404487380343 3488.343240674922 5785.219898597065 4303.3256420060225 3608.6347457068255 3760.9291039556533 4439.241960627161 3749.3521272553403 7149.57923366738 3990.2835699184147 2206.1094609099655 6610.342184499835 3646.733582437044 5892.302864199622 5526.872097520192 6099.3475632883765 7732.209263826097 3377.5066960053023 6283.338024676226 2952.003667306575 3700.7521512445787 3466.3211234152277 5849.491241026204 3072.9022395634606 2992.350873743594 8387.834540109767 1752.098887580504 2403.5948135381586 5256.125397200808 4922.66561353469 6271.463587947661 5328.294634523279 6015.150208387258 3394.408740492484 6745.308052222795 3823.7176411895 3187.888889533071 9678.219426714457 8604.705958726754 4501.626103996793 4115.655136733462 7625.352267521759 5158.726215874681 4610.074529439455 3965.7230970171436 8425.029564508231 4204.007924048602 4246.4750916510375 5014.363404930038 5536.564233099447 2910.1431739135483 6942.708634676577 3710.290085055884 2926.2790339476596 5757.792637535726 5611.001440222693 7556.823726588651 3453.682449429394 6246.286274370052 5280.057372468798 5506.3727751042 4277.485784176906 7176.859546500441 4245.871646937319 5595.028920959738 2658.918342193066 6310.084840836553 3809.4408070833897 3842.9770347780077 4289.945829958281 5630.288325641184 5052.352675714266 3688.904559707816 3957.885586765169 4565.852493645016 4033.4789516999595 4541.345063560749 3843.642550619931 3601.358947323608 7959.649670191481 3877.4935074654536 4941.2683938172295 4306.342550710014 3235.641656843372 6345.202866008732 3548.816314812218 7260.73948561469 5750.869815252988 8398.991004627767 4000.6072748421293 3539.1979389761364 2074.0951709864585 4716.571114949126 5917.423405491954 3611.7865510430606 5544.0008222175675 4688.173809773307 3657.9122168954964 4112.896927129526 3577.4230014575683 8277.608809914007 7242.463242451577 3378.3551648260172 5356.662113442194 3661.387436884024 4951.192232749135 4186.854150326145 3243.5863990745142 4158.727386808165 4367.015486620521 5978.401052256576 7683.870059431078 7298.298112630337 3472.1586511143532 5135.292293688027 3992.6234635018595 6967.674701940951 6382.3756023967535 4737.094088238032 5009.45211957189 3694.2711307158506 5718.380908282034 5656.063887022409 2716.531338959714 4923.483898519451 3095.3702523315856 3918.930655856089 3110.324524459683 5266.199437979432 7431.462509333933 8458.46736444081 5156.534767427464 6937.3117900286825 5715.585770160417 5801.566262960704 4607.600928080517 6888.268117761243 5792.6474440473985 5439.197261965836 6992.841772233039 5857.457696261791 4366.935493259113 3853.9135354580408 5659.115311397146 4946.726834597441 3804.8371607557597 3231.699945900244 3408.540272878765 6867.98617591083 6088.189820682071 8750.495574963425 2667.427109569399 7631.809148038119 9162.487621640545 4861.460849801931 4903.428926694238 2393.796653166235 4994.633488565415 2765.761819164058 6261.010028527921 6162.954828117257 4503.5228133880955 4406.496770157433 5694.493325052776 2973.403310041547 5995.4714573969795 4835.302530933797 5968.484474655132 3834.895757815734 6136.788064520397 4594.927955725403 6165.74196044834 3896.6623729961216 5071.105503672135 8309.47021279072 3455.867792816834 2774.601420583956 4540.168422224587 4478.7989279407975 6911.69144501543 5060.091358988555 6332.971911119978 5895.772113337347 4610.252519263364 5006.823046484717 9048.346931522636 3641.299550542596 4934.117847675028 6426.948738794862 4913.611930583651 6375.809974086287 3910.618640124878 6296.131815166006 3458.1348282237936 4531.76523216101 6442.3592291536515 6593.651790352709 3332.176018574241 5755.317351584876 6351.343472427532 3846.3885058192313 7657.989795427845 4586.5045964531355 3484.1100822245126 4899.538213823686 6936.363970821995 4707.266298752656 2308.1078931835764 4777.413871557782 4315.289796520787 2836.1752441396825 7291.608471203418 3063.439246521593 3598.247334427578 4604.723181078917 4052.2099285452364 4017.6840771441284 3999.8079264504618 5277.251035305534 9777.777147047458 4504.0041579525205 9100.42091161564 5994.445180177273 6719.558996172915 5453.6673810767215 7617.923964225952 3945.45628598037 2616.8177896280185 4133.715669675753 2118.7779768376513 5123.742198596563 7503.483167330523 5873.098697794795 4777.952869377597 8540.598179023162 3837.6659453541306 3108.443977521949 4590.35543962587 9060.067335865308 4210.543966545179 4796.321410191224 4222.957033642761 2669.9849950855046 3759.5844689770593 7940.783194041076 5944.63313555556 5161.988158921381 3022.140112195212 6585.177564004311 5121.07913672631 8954.881405744445 5386.0177453733795 4107.781823790245 4028.2816049979506 5017.361838630208 9298.301137116403 4494.043663719703 2706.656987330408 6129.558691697588 6433.766473771137 4092.6213915269286 5613.781630264521 4580.587945774844 7460.360370872312 5960.564550368299 4205.982483720947 5306.037712050517 3916.946322422104 6105.143769745486 3478.633031302113 12361.785019224126 4467.060411439981 5797.124370942944 2541.1785572978456 4647.690243079634 3134.0059386637163 7051.067803384693 4172.043519763153 4807.136076868372 4530.456576156902 5362.232640749885 6619.108808048715 7396.062427844232 7595.321182917708 4350.753409895499 4381.36364725266 5690.534854278884 6598.4682445609715 2744.267317645214 5176.589969612802 2327.6224154922375 5434.277746016603 5504.308407739837 7413.978177335841 4547.98024659143 3798.2851116256506 8461.454796361986 5509.959758466431 4981.015140304677 4490.4156422241 6725.907814785955 5876.361513250913 2028.5890349938168 7284.208840905306 5533.7890181130115 8630.908436624743 5769.141604675585 2928.4893422610044 2702.6390838364023 8330.890345333853 4537.672611913112 5287.1926819613045 2448.152735912583 3646.415687053013 2869.6762164281126 6843.0296123849885 2983.3180274869565 4697.433322420382 7567.3520001607085 6740.874667133837 5860.03120910307 7968.406886039191 6890.36550122411 8410.244097943898 4101.734148122289 5962.154777848705 2408.6240077434763 6300.8435048761285 7519.230300215136 4049.837699304925 5120.938363998581 4651.76674239428 5239.9076514252765 7695.637957210141 3836.978745368283 8532.716212680023 3784.4324580664497 5940.0678790168195 6672.3483345503855 5522.740974960616 4439.414229634477 3329.4898918342915 5403.1844146989215 1707.1578061602156 3344.407970393752 3285.283323126441 6419.696909615007 3485.1846885095943 3257.2611419106447 8247.58525110385 5452.958618760308 4661.522721661872 9108.680091281036 9090.865625728113 6237.505757579611 4895.985877580903 5681.674070198908 4746.598933845187 4906.225157625708 6130.703971236966 7556.915856991111 3342.54872610522 5115.747874847389 3395.493649155626 3645.5632989536384 6437.389837696737 8411.907368921818 4932.749959721274 3852.2312665152876 5795.788941720716 5192.072760562529 5538.4184726896065 5810.887457178515 3569.0565008523427 3469.787026118386 6388.338198328864 3468.1569349704228 4871.378226128765 6667.234389019921 4391.802742549583 3511.7126863369313 2760.031360011969 3414.0752377743925 4256.562245286356 4852.803388547935 4879.579669691275 4849.659254681808 7306.272848535972 9480.986027134773 2931.068857109105 6516.091188914696 3110.297850226772 6666.768273536298 4503.856887721316 4245.48988882883 7151.351963337139 7053.385906946657 6933.785773936715 9531.323778562735 4333.914926810615 3573.6144740425457 4589.220604988005 5062.072672786557 3511.357495369954 2795.9703571217383 7153.175852397161 7463.700503588963 3269.5195190719637 4158.203650516889 3037.225654479741 7912.985762972774 3014.3491250365946 5180.385780696012 9440.711272391842 3537.883421182052 8294.503954458612 3408.42815500007 6314.19639030318 4797.967466689072 2582.66976726709 5092.241695231945 3492.7727685195687 6472.603490914352 4148.902157377093 6720.304748357466 5519.619426666385 5349.058280383499 6038.78079602933 3511.0450446052523 4198.773720671519 3191.2158809202447 3576.479113646175 3416.171704316938 3274.727610710188 5018.289104377087 3699.771783269596 7909.591169809114 5537.941639570939 10251.021785295006 5229.792649791246 5046.152683136222 7561.080821072275 3923.473317603212 4204.100723641256 4298.5496463509435 2435.975758358725 4927.445866942944 6016.753239771601 8819.08982193311 5973.318546094814 7365.497928168291 2987.164874596882 6782.364241415882 3654.858880238636 4306.870536616949 6237.399053137169 5222.129296143921 6100.965766550608 5562.326704943388 10151.231764845832 9576.220787919536 3000.306964116063 2603.1138367889384 4005.219969928515 5373.044362959626 4172.426736657297 4224.5593920733245 11534.977462821505 2941.5421609818873 2477.495578940392 5034.564294902547 5157.2742754960855 11234.828321395755 6866.445174769427 4241.21592867167 5699.617227734558 4975.526920052731 4243.9373908089965 6609.845542596393 6692.811855542091 5473.620319793959 4941.192119875203 7258.508735161106 5702.235095723303 6980.019748053234 3086.399674659373 6528.024608314344 6357.489454924391 7372.16925672063 5711.629030720487 6034.003631768514 5731.255239321195 7669.409328898339 6754.543621509576 3121.9739381458858 6109.109090110843 6185.433798792571 4727.691482839441 3335.4394273008147 4690.692428852696 5655.179120330612 3515.9552066480674 2627.023799201643
stage2_unit2_conv1_param_0 5958.178976751145 5713.363020569248 5848.480214441797 5760.329424856722 4348.518028631518 5064.329743154411 8365.465569382339 3487.457541341262 10015.501668366333 1712.0046618581043 1770.3262142524873 7599.104261008667 7299.6631474456335 5287.573593107836 8741.463946172691 9124.317870092504 3748.8973573757976 7694.382178605086 6470.9725452575885 2217.9437026858927 6436.100388001408 6639.208434062609 3402.566400357071 9231.31283314654 5200.092239307672 3562.2783365328874 6035.577726825214 10360.073369247288 4798.964695243604 10607.499754619543 6818.0533135792675 3456.55877106542 5255.592222329108 3278.2626998735864 5141.744423894005 5006.178247202653 5183.830853912639 3393.419100108408 4393.307930957983 4605.115672194215 9431.511154327613 6572.003028519263 6547.240193486696 5018.1070215780655 4438.8905270678315 6688.230020804524 3932.3984270546052 5722.204378116334 5681.494162858664 5892.657804625499 3284.3559658783006 6238.047895361432 7497.369294113042 8784.793768678086 8448.175013525793 1974.8774894004284 5122.95992560346 2190.548802553251 6028.734498154445 7490.790494728138 4696.9922572855885 4714.88456815991 6790.119610685475 3256.65967296515 4028.6348190971025 5610.71840158075 4721.187803791942 4789.826526391512 4666.247771435142 4091.0215603236716 7676.212421884183 2075.247012038529 4243.214248490008 4480.439425334964 3500.7052395616943 9328.439053061438 7631.8031683420995 7412.427422193686 8135.427840451004 5083.3737478159965 5114.4289737755635 7604.464069611312 6477.516648852118 5708.115463278162 5756.523380528886 10419.152510284852 4088.5320952194606 4504.432932792372 5706.936317946398 4835.987752041758 4180.996107492993 5897.615650348593 1112.7083445366934 5477.037152139497 8565.81918055832 6200.857339350003 2522.037982704171 1843.6965732133726 6115.23648495147 7145.634991271088 7425.120912133292 4669.044366004575 6880.970999702892 4045.8158869284553 3789.652732786558 5115.622747670185 7197.531632776505 3660.595247807673 5603.071482121765 8432.690804166961 4099.924277809824 7309.572786271993 7455.469087666099 5941.724336487782 8265.127824141578 7278.6295331969895 6079.48681605155 3675.1965100658695 6037.988265249012 6901.285112691209 3431.4018046128394 4040.2486432086002 3969.2289874673097 2378.9168137354204 7300.092219189258 6027.895573396902 9481.504170214446 5547.127451487677
stage2_unit2_conv2_param_0 3623.3442127286226 5363.50229953929 7056.635858697561 3781.8023290086653 6772.149019724695 5618.581137846924 4953.9330766512285 3282.457309417982 4262.583475987093 7285.892476390678 3455.6751250264942 3891.057177978531 5832.726885003176 7129.57564166604 3783.704556021049 5191.055662922266 3231.354113302547 4269.523892013854 5052.447395865985 5746.939170071881 9999.067418606515 7276.828097002879 6393.045088841928 5900.678519555744 9061.748889768862 5131.873945580582 4705.429223159737 4030.3031882747605 4621.164764457024 3861.043852261654 2907.04446670052 8359.375896026972 2568.064123669746 6145.173021648515 7820.0469097715995 5558.543898467595 7020.661334202113 3616.6523567705517 2119.0114752299887 5216.874254110369 2363.6210477506 3309.619626915567 6989.600145568391 3937.1474328562435 3728.595618034032 6780.16621850135 3393.2356965502195 4152.263860985229 2563.3296742304683 5067.594264873876 2243.37621679096 4620.596992741982 6550.790496278836 5586.068316364531 11561.489337612855 4010.880720213231 5531.259330215893 7337.568953777773 6079.112806564192 5113.055154468282 9761.253673877067 3064.416252093391 12598.648297635295 2516.2422367409285 2414.4019850455857 3753.983200768871 6132.827011327127 3257.2480709019146 7279.948355128746 6194.019268314242 6826.986153402664 4447.47898463852 2149.223063301877 1971.1264948824366 5817.826051089448 8115.405973081877 4308.345829291386 5148.283536202534 6497.97599538507 5089.153882802117 11964.945317744636 7051.638070150671 5078.3808839709545 7241.670175028664 3402.841499824175 3471.039049478692 5738.86017900048 6134.766603815755 5058.009158519056 12317.285673148801 4853.7423446139255 4092.285114416651 6947.001015825067 4538.324702259538 5309.5486241607005 7858.461564278906 9378.436297535407 5134.486770805361 4165.337531500765 5705.076857785852 5066.336212494439 5229.319749177112 8036.126751912986 4823.942439788632 5599.191689599509 8381.968837183344 4317.659281311348 8591.2171863138 6672.109361263398 5135.715071956768 8422.933422640852 2639.829573107321 5168.1436388859365 5472.039318847831 6404.6044719864685 6311.3605075554315 9805.004045811693 3862.127314369793 6931.888796745126 4202.342893760289 5064.306797617594 6927.915631007588 6860.517252364212 9464.456974491986 3909.298892147724 8927.82478144 9004.123121197363 4536.025853693942
stage2_unit2_conv3_param_0 9201.438735847829 4380.681855790997 6650.546437289782 10303.85786357718 8660.633181900832 7202.015665950788 6335.31684516624 4126.784265072506 4299.519505376149 7226.346075331514 4187.800492161379 6678.248432708885 5665.7482398253305 8554.006686247627 4014.5326547788127 3630.369742807345 7598.962825128 11063.421556718718 10832.125130570734 11883.23017074824 5734.883219849844 6708.092241892944 6302.548267836048 2738.4780999206682 4597.838735857112 6904.204814349504 5489.061327812602 6639.266618297365 3799.587702199943 5764.155124411126 8473.577296751282 7612.533272745035 2589.1453649689643 6651.813581512528 2142.167833220668 3996.9951473948477 6308.727383086669 8082.626682625826 8265.65936771456 2409.3902067155173 3892.6410785252374 8898.517813126 8831.171604037212 4703.193857303461 3926.3436083895467 3086.1225128423594 8155.005421591567 6862.437523960496 9616.310860402678 8115.956592123657 4848.265390929966 7358.1437794117555 9687.584612020528 7630.171915594589 4552.807937742297 6754.346230326291 8781.79877852913 6523.6792780252745 4557.791213812801 4669.5716591255305 7048.296541453057 4460.837971127744 6571.984024655276 2551.677000126943 6830.501524181485 14568.797453271534 2120.596752059152 7237.167370135332 5023.967996380641 6957.174485348963 6705.700042624513 5772.5880130669875 7921.308309399728 10327.207725328584 6317.49253349658 2937.657425535083 3693.712359974213 6660.647027528776 3173.5148989852682 9839.845365913743 4964.017766980671 10370.40708360863 7346.350806198325 7643.9055774947265 2248.410585632183 8406.525648910152 6765.851619172726 6257.217212581427 3374.1618276826284 5354.216899062577 9010.024798953831 4228.95326887517 5228.570262611737 9080.78248954295 6413.524232704018 8591.582010938035 4802.6759436901075 9340.997895547303 4439.327804417646 7254.575413313052 4756.0610482465745 7083.352205344122 9122.729583354183 5140.415573974297 3826.98457735888 7335.041387825437 7546.064965395454 6642.049661695094 9915.90286480544 5526.158065908871 6838.742616536527 5262.28134439744 4889.0897959818785 9577.542409733041 4261.878207826817 3612.1631168904923 2346.277415055822 6239.310585640965 4072.783670159422 6589.610329423467 5292.050230487998 6315.14556548865 4498.574625485543 3531.248637843636 7850.602212362072 10293.10618070006 10905.559643358003 3576.2727631971643 5909.382230894609 5950.336212041003 11354.300988883851 7514.484317447386 6322.471346798131 6211.194573857099 6897.143906978504 9146.363020808321 5557.89550675424 6238.550170236006 7052.394435751397 12564.60459200503 4541.889591270206 2604.53678696941 6692.193049729201 3239.745079344112 3266.534935065607 7996.627637859735 4899.282267776573 10025.00949075398 5438.166062068016 7338.992166479611 8462.530725489061 5886.704845959507 7138.7176161908055 9761.133494289963 5720.084449314002 7212.204155331697 8269.776259917697 5250.314527406973 3772.793643268272 5087.016578354818 5944.581824852355 8210.928972338186 7162.316041871791 7063.206948819501 4875.156003605962 2028.689953875697 8035.451488846965 5720.174187999956 5956.110075329945 3508.137292687969 6250.186162261025 6674.434527650564 4503.330958728331 8199.407282233666 6103.770865786539 5644.874142165913 7505.459724201959 3857.10311874864 7478.9265138543515 5292.504555587105 6752.455874169456 4014.7326356201165 4246.189214120076 5271.506687475617 5690.336814003869 7801.4044993779025 4770.027478309902 6098.609969352481 9603.429414991384 2010.499899567308 6716.411574009407 4420.243254751353 7231.564756622282 6505.81553826696 8923.04084039321 6667.78664093796 7973.050042132299 2281.4236979936086 6964.737366910978 8695.045228192856 6030.658937434614 7555.709964024759 3674.029667221504 2980.7552268330114 5197.854813713427 6459.903262808628 3314.8651397348463 4756.403447025959 7916.123164038721 9400.14605983768 11228.524735446848 5946.495432284015 7655.664753534743 6965.691533412128 9765.935293769677 6641.919609347701 4509.343323966674 6319.99062548924 8676.212488585707 5394.680471077334 9458.228573120945 5976.626639992307 5075.2580964877025 7546.029889016287 3888.7318703788856 3532.5234549971224 3882.366282077694 6965.4417598745 11195.107741651484 3702.4683422818 11077.420022231978 7772.5076714956285 3104.2311550367162 4221.382809994946 6675.748048216288 5022.190991382241 3413.420961348415 8307.473177683212 3765.1509130556174 5638.600045186467 4541.630621809931 6075.51112128905 4621.932245252668 2365.3692448668626 4306.715201201438 6419.185591446786 6577.905875095763 11015.711543501027 5930.845386647548 7403.0625470817 7861.188774771368 5468.6339808634 7639.778150576536 9522.55935942915 5142.000736805914 5936.645563328083 2827.3248062353027 4854.381650597555 5487.398967188331 5176.398576263893 3355.158209691441 2617.8874288459438 7494.775767583333 8034.649465459339 8166.398175625945 6435.7055138239675 5953.093357577859 8348.019759489986 4696.722093216933 8275.925892874917 11730.902861152143 8070.908331219408 10567.420889030513 10137.996805716315 6004.2024133188515 1951.4380622691592 4111.8120357389525 3673.901779419565 10876.424078187301 6497.126463000622 10904.308248438883 5198.176196342966 6315.1525844825455 6981.660052433151 4682.894436291169 2971.9009537877037 7236.277157714248 5500.553045352981 4053.853536028569 5334.5983539739245 9030.234012788987 7106.953564535718 8030.11021064042 8718.548978937479 10434.107764696448 7251.681242400145 3175.0970618668557 9522.216910827665 5053.2884269443075 4798.360162493374 6001.142604864594 5525.961448450051 7907.265839006195 3528.927864080293 6907.187863264384 12776.1030091557 8950.211177661924 6670.748323497992 3075.007370354923 8384.48332522442 6467.733364649449 4013.711665691435 9105.08571633841 2652.631798976632 6593.8054661892775 7028.5911732598 6666.590971191708 5418.141340539021 2597.521264878222 8302.812104667206 10294.67040519938 8290.974330881745 5765.471626304834 7393.4398929694635 10473.723690287328 7984.252936337443 4745.739947566381 5425.7547362927735 6857.684726122003 5676.93589595535 8590.997981671431 10134.535472602758 5358.34767887419 6596.394801101821 8024.0497900446035 4221.942451761291 1986.012511458895 5774.2491898956705 7166.631243825481 5070.2065010680635 10226.07273282474 9369.4382095905 10106.571610616593 4164.02618118428 5036.711691040499 7892.846356765247 8177.894899116064 5323.677930887747 3084.3991923145754 3829.5488912144137 4100.231729649544 3284.9816371822967 5963.39168662551 7674.493024897589 5592.768184353168 3126.360374415263 4930.834692599735 6319.342782326796 2619.068402627542 2809.0176577379466 10570.867153014431 6146.884904655253 19799.807098357403 5494.239514385163 7986.541449479618 10022.061630971602 2055.682996249984 6256.405351123431 6049.9872247041585 3184.4311007547626 3235.08866755406 8333.795454331555 8275.657694107309 5423.618344588489 11723.039728203683 3592.6307318264253 3249.2589525147864 5990.533581157513 8600.93457780997 6425.962632259456 9355.621651879206 7231.01103063528 4814.493445675694 6491.896705283629 4043.9705874956526 7237.23420251126 6255.021538450812 5646.888170378773 7116.8962232728645 6196.274237089036 6843.117522488688 6165.84678483455 3446.6850265811254 8872.906821186594 11672.722221827516 7753.539856481981 2656.626491655519 4507.7927570908905 11667.589729285643 6153.901944055065 7060.538001546466 8513.798441090432 4154.068615425932 4116.062851048771 7341.112212869905 5459.416246243091 4738.663509161054 7284.185494982512 5210.317120579156 5835.045996000348 7005.04952754709 9938.703345270595 6635.5933153769765 7529.749637552159 7161.622420882484 4380.482875748414 5621.239544279832 3296.494991046911 9446.066562437873 1977.3321890881418 2547.072563316504 2632.512105270514 6193.507822615559 6486.545767072268 4421.917411234276 5040.840919122066 4249.268719578739 6669.02513924897 5366.486042592907 6488.37041869135 6962.223348125535 4819.254527279098 8344.062021742317 2966.6223716721624 3772.8345611638433 7435.826009193767 7094.30347787589 9721.370453253337 8729.252359915929 8171.80629915758 10803.65314056516 3900.4407263214885 5140.408598162069 8029.183497396562 6218.3921869772985 6057.039157732402 7898.0788088790105 3439.736377540076 6628.869150560093 4741.666972589163 6994.607938279099 5497.470262467162 7332.514774054687 3194.317846371833 5867.431057867371 6254.700783358031 4603.641533306492 2578.5382532595063 7823.195406956985 3108.4981131800205 6620.028464063542 9543.385201613803 8993.147086017787 9664.838099099077 8053.652167339472 3317.812479422612 6954.12328909913 9448.68854554515 9053.938833937615 2167.222781351535 7316.005766311585 3029.378060374646 7119.837683094122 13371.347290998561 6299.814221162335 2093.13659248053 5392.496398206324 4528.1229870363695 3308.4427973275324 8231.28294623758 8031.075922098478 6111.874567398367 6314.889382889027 4201.206683890257 6974.574751735905 3763.0591775562907 6363.656252496646 4148.057093043424 6763.898454134277 5723.340838026915 7607.491410546606 7691.125665009344 1917.2130193640676 7258.327923576922 6678.637651521066 6689.012145223911 5400.919010223173 3918.617135277356 6729.726986062161 7118.982789070764 13969.844447281015 4084.0145049450743 7512.44009713573 5321.164307418558 8329.185695506236 6782.428335261978 7430.4736537767 9741.679037230851 6951.646693664017 6740.208296307925 7949.501703049773 7119.700142806245
stage2_unit3_conv1_param_0 4012.638789093337 4485.809601699937 4696.909425237504 3215.886391575662 6254.847672483814 4744.026538258611 6040.697740725407 3415.885888722126 5497.124103274582 6071.790418140513 5063.292887748904 8322.019049225522 3725.923183996083 5952.280027572548 3782.1585361686566 5266.902792047018 4864.877853564924 3429.326279525381 3881.7164606156334 4684.361201972963 4100.977744715652 4547.092171264236 7595.806872015211 6050.089760627737 5343.957759109736 5633.306409173759 5203.8852734454 4406.851922572412 2623.543910821078 3546.042274198343 4309.110134762301 4608.292583629237 4957.397012631718 6133.410691355055 4068.4277562141842 4853.214439391163 3118.5431893949067 4964.090048850517 5627.643186722241 5321.744099767103 4645.801231356011 6725.556188453969 3885.260406435815 4535.9111836273305 2970.4247023938146 2677.713409058384 4699.512912793318 5961.005934549992 4516.22774827755 3554.8118114509784 5073.775352856874 3103.9796079338294 7222.253969360298 4077.759008629292 3155.609857492959 3518.8784808109235 6041.243139313292 4816.676637376109 2236.874507737459 2219.5621641160583 8868.173464624455 4302.949504501295 4782.57113515087 4703.2830754294855 4107.321808894669 4925.058315720434 6827.220626750547 6109.197765577769 3559.416694769914 4706.186944578311 5515.611124962081 4477.675054051182 3512.722949898574 5118.48608385018 4229.790946881117 3985.4498542835404 5467.110216193574 3686.556177876188 3883.7471010570703 3856.9975142606722 5468.712932819293 5214.54539658819 5804.36066567973 5188.794809881469 4920.002561940379 3033.2372722122755 6384.73216088985 6691.235505804901 5010.793284823535 9076.809508107113 3780.6188103050254 5612.600475250061 6627.006500205373 3147.6072508718835 6073.870679959781 3866.472074001152 5069.831005449302 4929.599779514037 4757.369861392649 4832.4848096879605 5127.590437747731 6002.268399599172 2790.5851034944994 3180.646632002147 3730.1810017292323 7808.150585044951 3689.9786231872686 4856.580766167921 2850.8955736541157 2905.2897186672344 6307.077034421745 5568.946056715318 3607.2933437453044 4780.8715946093635 4987.049440923972 4798.145741942108 4801.628140719088 2701.021350484414 5318.31079681912 3772.9802861843923 4832.443024392699 7005.911828965286 3073.239365456667 4521.698503632308 3867.9609728690325 5066.248123282414 7472.499591921548 5157.027359185557
stage2_unit3_conv2_param_0 3087.5722956540435 5524.990211222724 3297.2228764940787 3391.0812611873303 4387.882328160768 6233.520230373619 5425.7581904093 5516.874113919339 4151.505138554689 4162.892548053836 6273.413376010788 3616.3419857382187 6448.09236477823 3171.1474112324277 4788.613804347864 4140.809207816587 5699.860704339762 5124.750035100716 5329.896978076418 4826.02285046519 6871.2579075148715 4789.8083562593265 4962.503945651231 7183.726943678067 3466.825548663411 4769.8125792737665 4612.891871871508 4776.7515060414 8801.29427831887 9827.959031459799 5951.590040676664 4477.042920711698 5511.95127938187 4169.680416056803 4366.1564105187945 6248.161460690642 4519.30383003984 6055.993847956486 4549.415913085857 3945.921175568725 7098.4528425364515 5953.068408688982 5886.182419099164 5105.630072973723 4715.939864035617 4898.769399998405 3287.848148691083 4560.504120717509 3421.4818406447275 3763.2195184521515 4557.410098628932 5201.414033592771 7579.483243512442 4991.1308566958205 5144.805561550137 5244.51165093963 9395.519126550518 8705.728180091624 8563.657245747725 4224.824039457779 4983.153144247269 3109.2667027774114 5311.297341438166 5243.157381603603 5448.276696674193 5694.102888957796 5876.852818562077 7807.180525161107 4642.958418714289 6018.7778891015905 7751.376740369385 5400.597308263945 3392.006762660736 5068.978429785957 4821.796986626425 5512.051539350122 5251.666429485478 8540.501898022063 5147.788338100279 4469.453053985495 6022.196645557987 8101.486648445158 3207.424052578293 5039.4132259955195 5314.7721340730595 5872.336917664594 6244.055948559298 3744.594261642343 3136.1740131962656 5484.914152387906 2320.429378875629 8554.799827028508 5161.378574693376 3762.249374076786 2574.6196095442915 7404.865110625629 7207.4460943699605 5786.924700117118 4718.790152320849 7007.3518704176595 3370.3593622760573 3766.1637439782626 3945.0143314613456 5406.813960687986 3712.7743429544494 6479.649027419804 3278.723017640952 6869.307782392515 6155.144686773066 2473.799366937647 5214.62316449297 6293.348146842254 4516.820726499336 5140.953156004623 7904.2454103686105 4631.17106102812 6207.68735282571 6586.230322626015 4790.370684782541 6103.76758729652 5959.763763923357 4274.201542151714 4577.2979147170145 5905.737347822423 5234.826977384539 7052.731460910556 3477.5117341899377 4988.622075982049
stage2_unit3_conv3_param_0 8723.01231844917 6120.369533393966 5607.048412520888 5338.2416313068 7101.819917520795 7282.241304900425 5847.7925147342785 5671.093617876387 4799.5835703116345 6023.5852447414245 4718.122720061946 4597.615199574592 9995.981649322317 3726.051054020101 10133.516510030207 3985.135849129388 3809.132217200061 7363.734359709536 7106.557265582991 10455.677255485014 4875.649295321122 2399.907000083068 7226.313908278497 3407.356421446995 6761.729145875905 4010.995391473013 5809.8516102336735 5903.987907764841 6094.189783407115 3808.9185746005005 6405.998692918043 2861.4206198058473 7641.993336768251 2792.288149847671 4150.7373440375 3647.526807280994 9490.500268467335 7111.262370208517 4958.205252398853 4327.209710349505 5446.159076881762 7300.874682031112 7232.6540496435155 9137.936193830494 4517.4868907448 4986.794118148275 10465.914293301488 8852.960941146224 6890.030585999059 3538.2234346813807 4861.373155237148 6753.264463893702 5410.738629967315 4125.061782751137 3996.068425924526 5949.754145623786 8307.287950080201 8638.181625080379 10414.844270805846 3318.9720742880036 7986.908182414105 3875.7985257521564 6205.808136269897 3084.2169769115962 7351.630173439224 10915.064786950257 6376.49747498293 6596.705606898393 4345.265350522626 9456.79145520422 9370.813481278778 8801.778286798948 7688.633934199626 8869.516848218356 9000.884651497363 8476.256644230558 4554.427356353487 3486.9199892399542 4392.476964310137 8637.227971793396 5388.351144901829 8264.9499902359 10047.65021720324 3707.3805276763487 6650.0774633216115 7478.3883958449915 2853.8467665912954 10887.795846779212 7855.324443031201 5802.6475524197 9016.366410174644 7154.083266653278 3653.060873912924 5546.248463736502 6095.054891747184 8705.760971514557 5855.326393545338 10695.9717704906 5417.3376165054515 4060.8026159669803 6035.20001869442 5675.106795301944 3759.8743012542323 6048.062771134546 5089.917125460841 4578.344774997526 4596.487308537295 4387.025749724535 9170.508355865879 5712.526285707057 9885.15805231554 4978.012367164685 8224.678559988371 7326.026764870498 3739.9604617144273 5144.729862129075 3480.0079613496036 5213.959220872475 7224.182330630496 5257.510698833568 7420.483258079289 4499.686447855722 4693.471238925108 7169.245325815972 6835.239316863088 8462.149471865017 8834.803626718027 4194.035938770892 6140.71939533968 3467.451437396433 8681.144299155212 10915.87474216274 6484.741877476921 3188.0525551278693 4883.503444177988 5496.943727733513 8873.967513253501 6617.812983171422 6601.787316125513 10368.86470045954 3279.878479999423 3733.369308978547 6606.947283943978 3948.807950596034 7750.99342884569 6657.042328403424 4794.499813761405 4221.616999798214 10917.898845001546 6127.370182901031 5380.772642791985 5429.230072867389 4224.045374599279 5701.335826283308 4731.222356939945 7740.733025986435 5243.077953930501 12701.50969016617 2516.9650852180503 5094.512812979647 5039.009505464286 6295.470253008585 5706.555636414401 6099.149508343073 7640.0024364603105 4120.630991109858 4457.093474516735 5746.388950094461 6658.5531866521915 3711.7742595843188 6575.878310972376 4039.3855145754155 4783.382095400481 5615.746239249321 4821.5480752837075 2781.4433590784465 8049.416407030373 10534.880598150688 7012.8662173584535 5836.220730477226 7103.139078273226 3975.6918199739334 6594.161307447065 7680.006459158975 4992.464056181746 4814.26296394468 5033.899694854566 2567.21245359954 6548.400978092796 6005.982658894363 5031.727216714732 6848.525586672624 2640.4077792471107 4517.9846969554 8426.48103048291 8585.93395241285 7788.327986420636 6061.818928173036 5608.744851018576 10289.66391964167 3747.4146588334147 9589.932253332754 5407.758244216069 4528.454104364059 4933.539115652411 11210.194511801781 6013.751173752399 5310.235069311963 8375.864382027517 8257.9934271646 9196.22381496254 8744.180840395495 5419.328636496409 7298.01219978064 14517.546028901332 9190.961527361342 4091.867608356381 3274.9578865541844 2577.307415587903 4062.750460602241 8811.875625995022 3249.0774852014893 6396.563308358482 6310.230838820486 5141.031457793164 8956.492959510593 4130.627390574363 7879.256889434953 9007.811953456572 3831.965884330309 10764.385993476728 7271.909958893629 4976.982214647623 3135.1608147280895 5801.8155656473145 4717.134000505319 4759.6088574764535 7443.93118699089 7536.698641401158 4818.587661056621 7057.73372223569 3748.9369340520225 8687.16738887081 5184.102022391606 5708.641171276636 4567.94418772421 6946.287609327515 5611.798534420171 4597.52932525643 6213.851659211788 7019.973916923668 3559.8359459727567 4208.317573257602 13694.00036191912 4439.946151202846 4590.850270946098 6614.1601665641465 4296.537054419882 6136.330206546489 6314.607489071645 5814.432033993599 10128.697854574808 5766.051838359845 8623.633851819304 6641.367752317035 3822.937681544753 4353.105036065291 9865.497064519086 6355.869784410201 4149.430371196727 6502.374575294724 8002.7734951886605 5517.940294574561 14520.854257873318 4984.71894943277 3236.218182826144 3206.1330173655924 5045.595911758283 10521.774878116115 5673.810459200762 9737.240346765608 3197.675673343416 6232.274693690561 5123.125060786884 4135.140407395833 5856.97465954522 6723.7342914896635 6747.722589538005 3665.3243690243867 6600.22096284812 7998.820966762169 7942.042061627798 6360.329573749204 5827.271822610882 8422.058430769108 5675.894803666331 3842.101729871464 6834.425365273946 8076.148109332036 4839.477571035677 5543.042160549405 4399.066813064355 5060.826375383621 4473.715551984418 5632.699555539327 11249.184382643756 5311.831119830345 8266.104293687898 3628.515799192902 4635.272506216045 6339.58159839867 9573.630391534303 5491.9276520554595 4297.98522616164 3431.3082086759564 8462.791216037878 4128.024523572856 5576.349544749109 5132.946810459971 5933.682606933179 7814.961195925326 4373.289536942269 5283.486892447413 6305.06253905836 11143.533344703073 5848.178228642679 3785.4006277595504 11819.781710600984 8223.375616608992 5429.642967555182 6541.62318773837 9910.449015573768 2968.391531291041 7322.716676038985 8013.9904284782215 3729.9936718354666 4211.506771971313 3108.9477103917507 6917.656936086154 5282.028127080523 3740.537007353402 3094.4905388818906 10414.946086842025 4343.904700233611 9640.281350854655 4763.692425068333 7320.311716979092 4577.118773169604 5171.973754260382 3924.4326265480427 4920.848018077543 4051.8246374563737 4060.540948674771 4149.6066407235885 4291.589713519325 4002.187197059274 4355.141219159155 4963.602187075516 4352.188360721986 2968.3486270149106 4413.766997354236 6075.948036143825 9953.991313145956 6155.267488330671 5089.084370330861 8872.685707206576 6946.928111415584 4829.901987763771 8710.362555814996 4758.317740330701 4595.974532075144 1950.5839061750644 6231.430564428318 14339.043984040905 3161.808566253913 4236.069782264518 3821.5444942380846 6145.988955670707 12232.25027110227 5293.129482714571 4621.384645145041 7409.893930411605 7598.218467957705 9213.136693576474 5599.978072710365 6094.2998150417625 9569.11987376767 4683.9750372495055 4551.584330331191 6365.076671037161 4054.933616767396 6658.170856509012 3881.5688444331445 5339.389146794621 2532.755389310264 8244.296798093364 5493.536987462033 9745.162704123555 6388.45012959588 8198.590928433894 5699.239427533363 10105.436195865155 3377.341402978604 4760.911978235546 11426.456031737453 9100.653522077251 3083.95387688574 8438.960394469808 5366.151958452555 5526.654822450233 3190.2969746958947 6695.718883258052 5289.777312144827 3677.3475646674447 7028.9078119438 3930.079186743332 6941.708454704232 2925.4157262759913 5199.623901432687 3700.227965273673 5355.495383948345 4313.651179787224 7739.6636728170315 6422.886326510368 8148.076832065628 4612.943054386334 3352.7517587259676 5008.283833234195 5147.797277253027 8090.002504031795 2809.0320079806747 4504.909114322335 4792.925539988399 5742.406872972169 6410.06567706481 7584.043442516916 9168.813324689321 3078.122815205472 6569.384065641999 6334.052071572982 6271.839717846069 5355.395690649984 5223.190217977506 9643.24481004149 3613.7322206982726 6115.387866432764 2422.4838635982665 10236.61867350323 7056.188192047655 4767.558307988438 5625.8735591572895 6297.215728842538 5708.680842263656 6777.956143985405 5961.595417248952 4191.717440105703 6478.812283160977 5212.043306159073 4203.757800299172 5183.299635115125 5365.111115954757 6731.6923649255305 7281.2723204970125 6829.622342128365 7480.0070852202225 4422.8060317555455 6686.4446806109045 6354.650094631085 6879.320745404132 5326.575488470803 5261.112330409302 3554.2025313420413 2267.640451776002 12702.907038786634 6437.146735090286 4844.493359752268 11126.47243255813 8327.805186150723 5187.0812245486695 2610.8096954827824 7611.871232334725 6324.96164388543 13976.422161191309 6072.0207669778765 3648.9799314844304 4193.832142286648 5986.869940616524 4728.5026285253325 4367.656378382682 7168.793056482841 5651.557092346046 8203.142595981251 10267.380008572889 5791.541837066659 5640.670728048078 4555.189261548397 6128.3560027101075 10291.86632858871 3727.1228194732266 7074.9313078233945 11105.244938658001 4755.878588413203 8682.861170265636 4246.053032533126 8094.219599965193 5452.855699983797 4097.420029536594 6093.079884480764 4020.5436043662685 3084.6196654586834 3521.300981846626 5191.738295830207
stage2_unit4_conv1_param_0 3956.120985601616 3584.708978495828 4977.988016488499 4757.130212427259 3396.044313646227 4160.110532438409 3928.723182879396 2374.5280143895493 4942.868899074216 5712.52772154092 4391.916182922695 3844.8918815768934 4213.975092885614 4701.290911079219 2955.356056254513 3547.121844024998 5214.521069668632 5317.730508060952 5139.0994184778765 4943.6207922280955 2512.074511958462 4995.216762656196 4057.737277444473 2774.3898457143378 5984.670229360874 3437.4871539793216 4681.719820420541 4830.263656148812 5147.2069711867825 4221.710055638625 3106.024821191737 3013.264211982858 3430.086404085762 3163.27634166644 4484.514370845956 4493.974647648745 4588.526942231119 3717.4561001461193 4243.125259327627 3497.7822827117866 4201.248361680509 4492.355007931161 4194.2263386978375 4705.714679777933 3594.3674557806376 3694.866111146516 4207.603921253055 3526.228949533204 4690.361038333878 4109.942475301203 3296.1622411731682 3386.9929055691996 4375.236557201593 3028.6966176641868 5202.799623715679 3468.6054278904085 4991.678230181661 5688.588294020194 5894.699669613759 3470.1101905678292 3198.8440418106434 3593.096471216645 4758.16532380527 2320.517354989034 2705.175250171537 5509.344019123755 4544.553910493172 4268.439782992752 4194.448235763029 3349.2056341526145 4572.983674911248 3414.0656645246368 5610.182876414649 3813.4873173114074 5024.890299296027 4421.065267680148 4809.724458327073 3216.5873050708424 4763.106727935007 3841.2320173212775 4875.783181107398 4646.015548225577 5609.165198738916 4295.609946306928 4785.040437169515 3085.1785246478153 4765.965694606661 5312.028107018395 3495.176288662436 4697.260187198437 3609.1382674829283 4550.249628446075 3698.1535661139283 4545.662819645953 5013.475927668998 5705.480736077628 3429.9984014745714 4260.743128439499 3146.5459935635336 3799.1519948184623 3345.375463761813 4426.064395931838 4508.463415561486 4736.063188810203 4465.991563803664 3413.761399915125 3952.508513626068 4114.472452161431 3401.060934027925 3342.3045875078274 3178.6027616331107 4692.794476672238 4541.044116775366 3427.4152085963406 3836.776217353338 4735.364551421225 4066.6985737813657 4997.809845514351 2512.8355297384082 5402.808927273586 4850.426186918236 4197.689316617917 4326.53121490737 4372.019772470011 4833.3004526456025 5725.7069482216175 5290.306363138728 4343.070183828803
stage2_unit4_conv2_param_0 4791.905897817953 3654.910602523668 3438.162825733055 6608.324040131095 4072.027448405538 4539.241388736415 3774.014046013536 3896.1805189504967 5695.179690251867 5450.856096583112 4023.6812044380367 5709.291271415095 7833.570429068628 3646.600566704354 4146.218476079094 4782.256488186181 6593.475805247502 5651.569740506878 7384.199675510509 6159.130736148786 4595.70285339911 4870.94599786138 4306.477459060658 2501.232623425683 3742.2299184732196 8430.798295357241 6153.800302461535 5504.316850533801 2730.6990380040465 4400.626121268049 5526.203751239559 5259.633433759847 6087.9435666164145 5028.25173778898 5618.115399820998 4860.499848444885 4220.730822377165 5047.839804360373 6023.56449084538 4600.254996328303 5894.020928766417 5010.566823070038 4175.966840489185 5842.1130182031675 4196.766140667049 5690.710585009899 3366.946824519641 4925.407690421713 4553.447964620434 5520.350094379967 5334.325819872851 4819.930096294536 7204.0024981655215 3928.427106148174 2501.7015846048425 6429.1661605314075 3638.255624166443 4793.988086642574 5491.360604867408 5614.009508046138 5197.391632961394 7026.075742900797 5315.123468140646 6086.812032537222 7393.606653254294 6895.209744102232 4661.347443272072 4396.696466333799 6982.747580966769 6345.9611542990615 7279.509212850138 5915.149206408695 5248.091449078294 3858.0280596591983 6330.198481367479 5241.635772512476 5881.163617155194 7659.311158351835 5106.102279752337 6203.7178142347775 4950.670956116063 7778.950906747086 4175.514441871473 6344.066953866309 6184.128315123444 5672.290557261698 6079.367561652444 5935.303470966524 4778.477253516423 6721.412422939113 4197.7443634445235 6560.0958811138225 3930.1929089532805 4763.5766053471025 6230.18586260562 3169.184370317637 5947.971270076253 6093.833024988944 4390.2728602906045 6915.573770265671 6266.633293447648 5579.263038778651 5836.869234642592 5748.298703841062 5221.448245119017 6862.656479698465 4979.157844955623 5793.824368006123 7745.583530278871 4731.892187214483 5075.832014099226 5301.619009955435 5434.467459998452 5250.982910082395 6593.760829316028 5492.124951780615 4187.264779288362 6033.010563735772 3835.5002213569455 5013.912068550163 4664.698817149289 5066.070824797328 6746.474718161404 4579.888891493628 5420.539292359661 4684.500880560442 3903.2581871690186 5134.012392390718
stage2_unit4_conv3_param_0 5008.950517603606 6532.492140949658 6822.971844458599 5179.900128839204 14722.25508862489 13567.680112676291 5026.680703481334 4534.094135448525 4874.9364076051825 27258.12395835759 3884.776941191807 4205.393344926403 10724.6061357251 4792.5748311434045 7256.218348271973 3097.778182116226 5660.107028549906 7941.408415637757 8307.85681740338 9826.599265324758 4900.665116885165 6727.50187288349 10631.166013938333 16787.954259620543 8296.870822244693 4340.620230680697 4689.123336217444 3298.691102689293 9903.520739043413 2910.0626883273812 3251.00994519268 5734.468898465596 3258.859396154234 4310.828701687829 7195.161868492495 5877.934992937351 8422.873072536906 3571.6125913337696 3353.439717806389 10979.17093906165 3601.7561732787376 12248.852356039943 3990.908581483477 8676.027012995473 2476.5785868480907 6502.2028087145645 7133.643229774258 8183.501443850309 4593.29137128827 3865.543956947945 3777.658228630785 6707.261442069055 5385.579979362122 3264.9513457521243 7958.898009534438 4989.7925263844045 7939.223344010936 7936.41309302138 7412.380683930686 4713.5081106502475 5189.189714715829 3864.120424468004 7030.323977901829 7370.674982736113 6333.085440070384 7823.165785456329 7450.866736539095 4315.317108242979 5793.811075103464 6052.188484114323 6566.290985167953 14586.740847827792 4462.677382617351 5137.2516621402865 6756.877057087186 6317.063500831341 7535.246855994757 4855.886584840485 5296.203674669859 3780.9366351881617 6421.370444384609 6706.684820385654 9131.610816460432 5042.977635345114 6203.152844739235 5920.288405838754 3510.9918901143765 8596.27498783197 4057.5040141451395 6270.270885397752 6559.929887439638 7429.617020386317 5708.385473928168 4292.971030667818 6643.764758523289 8806.922175707141 3939.748639082084 8967.747046070204 3182.5401181238312 3561.967551078428 3986.309195510762 6799.052578959182 2880.9973761869187 5515.738736447398 5851.011198019554 5835.385581516998 4508.602639461792 5339.761725098459 7781.935827391436 51596.9622477042 10424.034020985478 7107.244705758493 6796.341023331551 7524.687251163976 2366.317894780827 4901.67025859528 7376.348468838715 8015.201948684684 3800.251829463166 4722.211255678574 7911.5286134479475 7906.10414462075 5534.7512208173375 4165.11285167377 5649.1287578464835 7437.002858850034 8284.04285254937 6404.234506627913 4847.618733787528 3252.7628260724787 10860.424087334351 19047.929308008024 4824.5046190849625 4658.52154535114 11499.087946024825 5869.633334455333 5936.274450521633 6066.713126884932 6301.512020797707 11589.031366015486 3591.3500033447053 5375.875966928825 3988.389178436099 3760.5951366078566 9822.012831224567 6872.383350236452 4007.488381431544 5275.854088050314 8598.020251485634 5306.036886208458 3897.1594933589063 8007.003549698539 3992.074110860661 4523.375985586254 4563.645415759785 3735.0626935182104 3539.90059084695 7156.461348451244 21826.10268311874 7446.919064105059 3978.6864128325183 6907.229147433517 3682.539318111384 6293.057717907716 5903.5232352079665 5116.349031225045 4893.901628010652 2894.8345618997946 4421.191405501261 3483.157488997924 3685.662209697624 4423.074007434736 4863.327102169119 2283.752689419629 5359.552725080624 3863.758246099867 6143.679089105081 7003.785250661831 6878.401889319263 10968.405078058422 6065.642351617845 5147.327430817029 6418.916668361241 6358.398918236894 3882.282279305698 5783.067254891883 4285.089052286144 3545.849378615986 5460.471264707491 6558.490575968908 7958.085186540402 4483.696606988039 3911.100931343356 10764.983378540957 8427.772568352057 3798.408262809946 6525.1770356999095 10150.127846677891 3907.103529472978 9241.98251030466 5114.627705565032 8429.948246324357 5703.773952467244 3777.3133317333827 9990.343499660286 8231.810642269178 6164.004513708645 6459.111994523701 7547.267781393962 7383.276124406805 12840.656020578917 10527.228446948842 5973.666043126678 7176.966819428395 13605.174841964115 10086.572984654216 7206.925002962253 4371.61891788422 4391.454254169822 4209.328475031172 7125.966961776469 5233.653255399043 8798.22501807032 5318.381319451053 8806.623576049999 8570.279364843136 7662.121430206506 6576.237928415689 9315.652372213719 3320.321971461516 5316.416097754692 6846.438469207718 6009.234886003407 6202.6878521571525 5039.106332905023 4802.917835346096 6537.776878747955 2506.2660072157705 4673.513979702178 4945.37741470511 7707.307784060748 3090.7068211713213 8400.094053803392 7031.3223046098265 6598.504643600009 5735.21221148077 3306.6021477446666 6691.4929255231345 4134.1344902970095 3433.3377255011915 4794.002580703224 4453.469574422516 3165.788477508949 9341.342791229858 4559.167841509108 8488.472878261675 5653.269324873045 2907.5058639994254 5778.582620233657 7333.450909004473 4503.188788611238 5871.097550524986 6910.289748179328 7393.472763391889 2805.211694216457 9752.388596520714 2561.47091725856 6492.603288152204 3384.1327180515686 5953.837242387186 6761.91422733504 7599.016180560347 4573.8466085197215 16006.865885761172 5545.745923446905 8092.546065277455 5001.065808591485 4350.41445869877 8526.125871595174 4846.207097566953 7817.614370835657 1877.151382260744 4666.265335552086 4614.00160110158 7778.882569831 7669.299769974793 5082.319988467198 7903.981518976366 4925.9788219904685 3905.6778654940076 6068.99194086831 16076.842821149365 5913.364440824211 5771.3850146272525 6213.909988874992 5798.236548294922 5633.530289272129 4448.9476875165 7609.828047004127 7029.872395267875 6218.7755904966 5769.400821291643 5799.3437265032635 3626.7389822199775 5598.524586831046 6144.419873672023 4651.30755715132 5859.25267426679 3929.6696600867676 3923.9082004014917 4206.984476462704 10888.08533582024 5994.945360772803 3974.719339109534 6212.883999646814 10221.315068390471 9393.816909133518 5770.434990553368 4486.762472120851 14817.423916968224 7900.017938774305 3955.668836032364 4249.53249911139 5041.701204031728 7877.503588124672 5462.303321855565 4111.49119219944 15725.331039586166 11767.320032984515 5099.239221089193 6255.4840804565065 6545.367205642048 1576.0146720479956 7576.343446591153 6338.849584978338 5130.951725368967 5146.479281796939 8703.019017054674 7664.767465485977 13290.087134457386 4027.859923734696 3849.9212498157835 11693.064805108601 3961.9844067181252 8679.81593128364 5815.3569215028465 8010.211257311917 5763.71756090621 5041.94726670793 4034.3142545608257 3113.749433216966 4670.630442098897 5820.419006689299 4074.4242913892026 4239.801535622548 4355.518746476208 4590.687375903677 3808.889211256005 4954.608410798512 5006.682602846753 4839.491310967949 4248.017537199729 14815.3327453492 20484.21654216026 6937.111336076464 7802.956200744148 5844.675066230118 3368.4132486911462 6867.355997159291 3438.835641236126 3767.732106691818 3128.577597964603 5548.292945832405 8652.590246284195 5190.109681140922 5176.9106932755885 6384.627534147509 4797.360484783668 7406.203530944756 5765.8524077687025 6917.733438607107 4372.834602794338 5161.696634653965 7773.836058366531 2572.543513827327 6269.173169589549 18778.366546701414 7365.165354929503 6010.265174436035 3690.0784749788363 7924.284694325834 6337.200522162392 5255.917948528198 6014.684321769255 4529.944280360014 8470.996991780416 5274.0042003231265 9076.83065428628 4164.65898585817 6692.968217370818 5013.2650735759335 10003.02233245633 3636.3001427585245 5392.622214903679 6041.071320104383 6549.066445414397 5036.277526843485 2785.119071503422 5718.672515515018 6160.481903666142 3802.594221816955 4004.209475695295 5807.4070504576075 4024.0882361828785 7498.565706557739 3453.3102154412477 5778.138946303667 6659.496195256233 4915.047170106467 6803.038104337734 2966.727702747508 8989.856646932722 6467.447475719306 5447.998518277744 24236.4351350895 8915.221979824099 3913.8093539109104 6052.830528820333 4385.252955623425 8947.835616510265 5305.356479718486 6620.137734381835 15362.906246141394 10409.074238304494 4811.252072665053 5326.5858915866365 5469.609636092332 4948.3491937902845 5973.602716106839 7006.10548008998 8808.857592326845 6623.23158063044 5909.183517249425 7698.11597833184 4318.970433286144 4758.68404480781 3531.851536540161 9812.135415533377 8412.473529142684 5663.454936303934 6697.741423230393 5295.883631094363 7153.7672592203535 4963.204740967812 6341.781602709171 5342.088692833491 6362.7981303532415 7043.913041061716 6298.882450605826 4837.724309068392 5697.686827891058 6567.991217838977 5903.65409268729 4756.560728104088 6199.070740804283 4700.254797016796 8794.595209850395 10936.18293427201 3022.207894425166 8456.517644616211 4451.605482434263 6180.050477607736 2390.415516169782 10575.948489126524 6757.6980920986125 5735.178442273025 9783.861525050277 9651.029236136359 4680.372937193141 3211.488239657359 2065.7105286071796 4030.431361681627 8349.54552238751 8206.292115622935 2706.0234153758647 3363.4127668256456 4776.039141009864 5398.7384335182805 11409.391893951932 4465.078196719583 4941.258008963641 5116.914231697449 4674.700185733042 5548.907036002387 4511.1417783514225 4707.605283004434 3789.6628431700915 9825.947136032502 4527.673154069209 6663.728062263308 4870.876751025056 4616.322050700689 9491.547941447823 7001.055336822295 6286.6640429284 7701.624601604696 3703.1041789275027 2744.303325937924 5678.70989306227 9543.697113834822 5613.463187034301 5376.920142775511
stage3_unit1_conv1_param_0 3193.2697281543833 2496.856923115346 4136.4117922663945 3686.6259439656437 4517.5006590144185 2653.7703787803007 2749.0853461207284 4091.1006016472143 4217.421467846576 4479.68730796325 1536.7494889342488 3217.5089704572424 4385.031844867644 5901.161131027081 2740.3249417271154 3958.419594554426 5132.138160189002 4299.220748666366 3942.634593729288 3153.609404556731 3181.645798269527 2778.1177852475603 2204.5792652403256 4774.634774987304 6509.399347461952 3793.1013935471005 3757.3365736229625 4805.04380816106 3461.538679109453 2307.8330514147815 2693.9198846676536 2960.6436945475866 5306.815769466662 4640.016456797538 4934.429940901278 4009.874442679336 4072.118403933929 4352.964967313151 4636.338489549801 5816.422022360379 4574.5017719981815 4328.880358268776 2127.0679493309226 5147.094676803041 4242.487656873644 4625.215552991968 4917.657684963722 4272.169385480881 4496.213270365013 2345.100019405322 4124.296502478596 4818.5971961472205 2505.6028777832885 4614.0506225515865 3692.4617426193663 2190.5483802898534 3997.4174213668043 3414.882318978087 3387.569764675745 6205.552275684185 3295.431319804118 4325.138645844375 4709.852978764542 4342.604366538996 5372.789478623727 3160.832075739877 2556.583942851696 3850.66267631724 3319.525347633719 6906.6638071321495 4741.3464745249985 3453.2497000173616 3316.748884519479 3605.911746435292 5498.087783962599 4346.008461963171 5050.275341628662 5987.620187923999 4881.7876987517975 3466.776544944649 4220.88707199996 2812.729064842519 3418.3468379444657 3834.088377926572 5844.384494372488 5325.594033250651 4401.081743257494 3787.6409977969415 4366.275240419328 2987.7926658058577 4767.579976733588 2768.713106175968 3132.1950714235377 4060.399246454909 2321.525212509499 4065.627005321606 3393.6197521229224 3781.7847091947547 2461.6681798114532 5365.839452160702 3693.044538538193 2363.8508225144546 3613.1412536919615 3713.3918825022706 4331.436765758843 6586.791507324507 5742.594528016861 3324.7361852933686 3433.4905633982544 4869.732549482534 3037.8900963844962 2936.320196020521 4126.270290996844 3600.933282294775 3764.6091578430687 4576.874511837729 3086.4932838970067 2843.382242142652 5072.998070727301 5316.967905082415 2426.042022224087 3748.1434988247506 6765.940243094177 2389.689644662735 5676.061598482023 3849.0858022033904 3196.7452499578267 2971.9442198983807 3723.470512365567 3501.894064203115 3942.5689361727227 3695.806218365558 4109.59145628217 3418.3111913978564 4081.326133920923 5538.565137876408 3974.2587587729954 3995.869363390562 3406.3153122259764 3962.531035579356 3226.7266598455885 5181.2014398903675 3993.7474190119715 5258.624170668457 5261.784277404741 3757.229321976626 2883.2490236105305 4236.41325980225 3118.1173356948048 3187.766374922541 5483.435103597014 2346.0400654471305 3556.259874737646 5120.489942917506 4478.278540381323 5058.492487669005 2977.3301794111294 3763.315064860889 5442.148992330997 4827.96215271582 4434.937845531255 3565.3858205559386 3591.0927567298813 4526.171251347577 3441.4044706062396 3308.5211409720664 4083.9942011655053 2673.766444878282 3871.741885864866 4624.579032140681 3416.3853270805885 6032.802381246683 3218.5043912637893 5121.5880600799865 3564.001853335586 2278.69971842524 3886.2839610219135 4274.7321277979445 6535.89551709151 5104.835356933622 4790.725110436117 4080.482729589 2010.4835374288307 3084.084165773547 3821.817394960932 3600.9591464669275 4886.853442071821 3477.65788764177 2657.0921667099888 2310.2723504377764 3833.3067682995734 4199.826347944594 4978.326039709723 3141.385309217434 2099.289644037756 5349.806190630053 4530.781712316191 4289.789823683667 5622.284325154176 4947.610581473685 3554.2192059370814 4201.394111014238 3244.6631815233536 3495.102830627782 4034.1065898263223 3716.3161532136405 3048.2206602091683 3972.500361170264 4718.639277828025 2550.9795089121862 5555.691381649596 4293.20268828088 5647.90788745172 4026.8722216795254 2314.726148079642 4914.888799232159 3521.5894324538685 3908.590282118579 4801.066885008984 3819.325892000896 3125.0074283235117 3160.274477471506 4779.427532544148 4293.680138596562 3333.3766403468067 4355.722977917878 3602.303073030654 5194.163944037422 3182.438512811556 3188.924230725986 3364.0144837540297 3095.0302207392147 4067.8978771133707 6139.528355288797 4902.6070708452135 4589.3367506812565 5600.008428766517 4451.547354610107 2558.0570398655964 2861.5395091820515 3320.404112702422 2968.9734460774384 4579.602808455996 3289.4305452044464 2868.6808579459803 3143.1111897857677 3317.400517743814 5400.395836262264 4900.632006717735 2968.266698800619 5317.818435028499 3848.0352700886797 3260.4748110450605 4559.294056206364 4332.935272500899 4117.436903747812
